#version: 0.2
Ġ t
Ġ a
h e
i n
r e
o n
Ġt he
e r
a t
Ġ s
Ġ c
Ġ o
e n
e s
i t
o r
Ġ p
i s
e d
Ġ w
i on
a l
Ġa n
in g
Ġ in
Ġ f
a n
Ġ b
Ġ d
Ġo f
i c
Ġ m
Ġt o
r o
a r
Ġan d
e c
l e
a c
Ġt h
u s
a s
en t
e t
Ġ re
Ġ e
Ġ n
at ion
o m
u t
u r
Ġ h
Ġ is
Ġ T
l y
s t
l o
v e
i l
i m
u n
i d
u l
v er
Ġth at
Ġp ro
Ġ I
Ġ on
ec t
Ġf or
i g
Ġb e
o t
a m
Ġ A
Ġc on
ac k
c e
i f
Ġ (
Ġ l
Ġ g
Ġa t
Ġ S
e l
Ġ us
Ġa s
o d
it h
it y
Ġs t
o l
a b
e m
Ġc om
es s
Ġe x
Ġa l
ĠT he
o w
c t
er s
Ġ v
at e
Ġw ith
Ġ R
Ġw e
Ġa re
s e
Ġ C
a in
u re
c h
Ġ it
a d
t er
a g
Ġat t
i r
p p
Ġo r
a y
Ġd e
q u
Ġw h
he r
Ġb y
r i
Ġatt ack
p t
Ġc an
Ġ F
Ġs u
m ent
Ġ r
is t
Ġcom p
o re
Ġt r
Ġ W
i es
Ġ M
f or
i ve
ĠI n
ro m
Ġa d
Ġ P
or k
es t
Ġn ot
re s
u m
k e
Ġ D
i al
Ġ y
Ġth is
i z
Ġf rom
for m
p er
an d
E F
il l
a re
Ġd at
Ġ 2
Ġ en
c c
t s
y st
Ġ lo
Ġ 1
e re
o u
o s
Ġ B
Ġa pp
Ġn e
et w
yst em
ion s
Ġcon t
ĠR EF
i v
Ġ im
ic h
Ġs h
Ġ un
p le
Ġh a
at ed
Ġ le
ac t
ation s
ic al
u d
Ġs ec
Ġin t
ab le
Ġc o
Ġre s
an t
ac h
Ġm od
â Ģ
Ġwh ich
ag e
ar t
Ġ H
Ġs ystem
us t
Ġc h
or t
al l
ur ity
Ġ E
o ur
Ġdat a
in e
t her
o c
Ġha ve
Ġ N
Ġs p
Ġ O
n t
f f
en d
ig h
i re
b er
ul d
Ġw he
lo w
p l
ig n
o us
ver s
as s
ar d
Ġp er
Ġs e
ect ion
a p
Ġ L
b le
Ġa cc
u p
i le
ĠT h
g e
etw ork
Ġw as
am e
Ġin c
an s
v ic
Ġ G
o un
s o
ic ation
Ġs c
u ct
Ġc l
Ġ he
o st
Ġmod el
ul t
w are
f ere
0 0
Ġ U
Ġh as
Ġn etwork
Ġw ill
Ġsec urity
d er
im e
âĢ Ļ
a il
Ġy ou
' s
id e
ab il
Ġs er
om e
an ce
Ġd et
Ġp re
ec h
b o
Ġ k
g r
Ġe v
en s
ar y
a k
u al
ĠW e
as ed
Ġthe ir
as e
form ation
Ġus ed
Ġm an
Ġo ther
g h
Ġal l
Ġcom m
o uld
Ġad d
Ġd o
c id
t h
u e
r y
Ġus e
č Ċ
Ġd if
it ion
or d
Ġs o
Ġal so
Ġm ore
or s
Ġd is
Ġde f
Ġ "
Ġattack s
) .
in d
ĠTh is
y s
Ġthe y
ent s
en ce
Ġo ut
Ġo ur
Ġon e
Ġin formation
ar i
Ġsu ch
Ġa ct
e p
Ġd es
el l
0 1
res s
st r
en er
i p
Ġb ut
c k
Ġo b
i e
Ġ ro
as t
Ġs et
ow n
c ess
Ġex p
Ġit s
p ut
igh t
Ġp l
Ġin ter
at es
ac e
od e
Ġim p
Ġt ime
Ġa g
Ġpro v
ri b
Ġre qu
Ġp art
Ġcon s
Ġas s
Ġm e
Ġdif fere
Ġm et
Ġw ork
n er
f t
y p
l ic
ar g
Ġf e
Ġg ener
on g
Ġus ing
ro l
Ġre c
Ġp o
Ġin d
ech n
Ġn um
it ies
Ġ if
Ġex am
) ,
Ġo ver
Ġthe se
Ġre p
Ġ up
Ġ ke
Ġpro t
Ġst r
Ġ qu
Ġe m
id ent
on e
Ġf un
Ġv al
Ġs im
Ġa ut
abil ity
Ġon ly
if ic
Ġpro cess
it e
a v
Ġ V
m s
ect ed
at ure
a ke
a us
at ing
or y
Ġwhe n
Ġa r
Ġa bo
Ġs ome
o k
n ing
c es
ic t
Ġan y
i ous
e x
Ġt w
Ġg o
Ġtr ans
l ud
Ġe ach
Ġcomp ut
o se
an g
ver y
Ġm ay
Ġdiffere nt
= =
Ġint o
Ġ 3
on d
Ġt echn
Ġl i
u b
Ġan al
ut ion
Ġ2 01
ri v
i ed
Ġp h
ment s
Ġfun ct
al ly
Ġk n
ir st
Ġth an
Ġthe re
Ġcont rol
j ect
i ent
Ġsp ec
Ġtw o
Ġ J
Ġcl ass
. ,
Ġbe en
Ġad vers
vic e
Ġ j
Ġacc ess
Ġus er
Ġth re
h od
i ble
Ġm al
ter n
Ġnum ber
Ġper form
Ġne ed
Ġne w
Ġapp ro
Ġre l
Ġc y
ĠF or
lo g
in t
arg et
Ġd ec
Ġinc lud
Ġp r
Ġh ow
Ġs ign
Ġb ec
ag es
Ġp os
vic es
Ġwe re
Ġmet hod
Ġwhe re
Ġn o
ĠA n
s er
ve l
Ġo per
e en
ff ic
Ġt yp
ul ner
gr am
oun d
ar ch
pt ion
e ver
Ġw ould
Ġc re
Ġsystem s
u gh
Ġsu b
d u
iz ation
t ain
etw een
Ġd ist
Ġy our
Ġin st
Ġun der
c ed
ĠI t
Ġb etween
Ġdis c
Ġ K
i a
Ġabo ut
Ġf irst
res ent
aus e
g or
Ġv ulner
is e
Ġt arget
Ġ ident
at ive
Ġv ari
o p
ig ure
Ġf ol
ical ly
Ġres p
Ġc or
Ġin v
ve lo
Ġb ot
Ġre g
Ġthe n
if y
o ut
s s
ul ar
ro ugh
Ġm ost
Ġpro p
ic s
iz e
Ġthe m
Ġg r
Ġtr ain
Ġli ke
Ġpro gram
Ġ 4
Ġc r
ff ect
o log
e ar
Ġsh ow
Ġfol low
Ġexam ple
Ġp at
ire ct
iz ed
f ore
Ġfunct ion
ac y
Ġ ent
o g
Ġs ame
Ġco uld
Ġfor m
t r
velo p
Ġc ode
Ġke y
Ġt est
k s
en c
er m
Ġre m
i qu
Ġb u
n ce
he s
Ġattack er
Ġc all
Ġadd ress
l ed
g an
Ġ 5
Ġprov id
et s
ing s
he d
Ġb ased
Ġ 0
Ġth rough
t e
Ġs m
Ġag ain
Ġin f
if ication
un d
Ġcomm un
) (
ay s
Ġus ers
Ġal low
Ġen c
gor ith
f ul
Ġwe b
Ġadvers ar
Ġc ol
Ġde velop
p lo
Ġex ec
Ġcon f
ou gh
it s
o b
f ter
is h
v ed
l es
Ġp riv
Ġof f
re d
Ġlo c
Ġdes ign
a w
Ġrequ ire
ec urity
Ġapp l
Ġsh ould
ĠA s
Ġ [
Ġr un
Ġle ar
Ġm em
d uct
u es
ft ware
on s
Ġh igh
Ġf r
ic e
pl es
Ġfe ature
Ġcons id
Ġp ass
ent ial
ys is
ap h
lo ck
Ġp ar
Ġsu pp
Ġ âĢ
Ġkn ow
ur ing
Ġs ol
oc ol
an ge
Ġadversar ial
Ġpre v
Ġg ro
ul ts
oun t
Ġw ell
ĠS t
if ied
i b
n el
ry pt
Ġpro ble
in al
Ġal gorith
i x
Ġex per
Ġcy ber
Ġwh o
os ed
Ġa v
ĠH ow
b ers
ex t
Ġre al
Ġpos s
Ġm ult
Ġbot h
ple ment
ĠA l
Ġman y
Ġe ffect
Ġcomp le
is s
Ġp ub
iv en
Ġin put
Ġagain st
Ġm ess
ar k
Ġcon n
ure s
Ġf il
b ased
Ġor gan
in ce
ation al
Ġso ftware
Ġs a
Ġdo es
ĠT o
l d
ĠI f
ce pt
ie w
ere d
Ġwh at
em ent
ĠP ro
ĠF igure
en se
Ġim plement
Ġh ad
Ġexp lo
Ġlo g
he n
Ġd irect
Ġb ack
Ġanal ysis
str uct
Ġbec ause
Ġto ol
Ġa c
i er
Ġa m
Ġp ol
Ġc ase
Ġprot ocol
Ġst ud
t ing
in es
as es
Ġst ate
t en
Ġ ==
Ġf ile
Ġ i
Ġres ults
il ity
Ġre se
plo y
our ce
ual ly
rib ut
ĠHow ever
in k
ur re
Ġpart ic
Ġp a
Ġinc re
abil ities
Ġev en
ĠU n
n ess
in ed
Ġm a
ĠC om
Ġ Y
v ing
u ch
Ġbe h
e f
Ġtrain ing
re e
Ġm ain
Ġp ers
Ġtechn iqu
Ġwh ile
ĠO n
Ġm at
ic ious
ic k
it ed
Ġle vel
Ġc lo
Ġh is
ad e
Ġdes c
Ġme as
Ġ 6
il ar
Ġf ind
o f
Ġthre at
Ġm ake
Ġde vices
w ord
Ġmodel s
ot e
Ġcomp an
Ġser ver
Ġp e
Ġtr a
Ġmult i
Ġcont ain
t ur
Ġappro ach
Ġa b
at or
Ġbe ing
olog y
Ġc er
p h
enc y
Ġor der
or m
Ġdet ection
Ġs ens
Ġ et
Ġres ult
Ġp ack
cc ess
l ine
Ġval ue
Ġm on
Ġm in
it ive
Ġm ach
ow er
Ġw ay
y n
Ġo pt
ar ge
Ġcol l
Ġmal ware
Ġr is
ĠC h
Ġse e
w ard
Ġp resent
ot her
and om
Ġw r
al u
c om
t t
al s
p en
us s
om ain
Ġdet ect
Ġimp ort
Ġb lock
Ġex t
Ġex ist
Ġs el
Ġa fter
ate g
Ġg et
ĠC on
Ġc he
ĠThe re
Ġproble m
Ġst at
Ġposs ible
are d
Ġn on
Ġh and
f er
Ġappl ication
Ġs am
ol d
Ġco un
Ġde p
Ġin s
Ġfollow ing
lo ad
Ġapp lic
T he
av i
Ġ est
ro w
Ġh ard
Ġman ag
Ġadd ition
il d
Ġmal icious
urre nt
Ġth ose
Ġprop osed
y m
Ġpre d
Ġe very
iv es
Ġg u
Ġlo w
Ġwith out
Ġf ound
ent ion
Ġe l
Ġm ust
ak ing
Ġre ce
is ion
Ġprov ide
Ġev alu
uct ure
Ġlear ning
v es
Ġob ser
a pt
Ġ 8
Ġnetwork s
Ġl ist
Ġperform ance
Ġen d
Ġpol ic
Ġav ail
Ġexec ut
Ġ very
Ġ vers
Ġpro per
ur ther
Ġf act
Ġl arge
en g
p r
Ġob ject
Ġmem ory
Ġhe l
Ġcon c
o ple
od es
Ġde vice
Ġ2 00
Ġ1 9
Ġspec ific
ind ow
Ġd own
Ġpub lic
i an
Ġcomput er
Ġrep ort
Ġpo int
o ve
Ġpro b
Ġ X
Ġact iv
Ġj ust
Ġwith in
Ġgro up
Ġo w
v ir
Ġst and
Ġp ower
Ġr andom
m e
at er
Ġis s
Ġsim ilar
ĠW h
Ġd omain
er r
t ed
Ġhel p
Ġlo ok
Ġser vice
Ġsu ccess
Ġre ad
Ġsupp ort
i el
ĠIn tern
Ġpass word
am et
Ġmethod s
ĠE x
or ld
Ġconsid er
Ġalgorith m
Ġl im
Ġthre e
Ġ 7
Ġg iven
ive ly
Ġl ay
Ġdat as
Ġ ver
re ad
Ġbeh avi
Ġe qu
Ġass um
Ġcomp on
Ġaut h
ĠA d
Ġfeature s
Ġpe ople
Ġs end
Ġa ble
Ġtra ffic
l l
Ġapplic ations
n s
Ġdesc rib
Ġsm all
n ot
Ġe as
Ġche ck
iv id
Ġtyp e
Ġb o
vir on
Ġbe fore
Ġy ear
im ate
Ġc ap
Ġpers on
Ġst ep
is ed
u g
iel d
Ġ1 0
in ess
ro und
l ess
Ġmach ine
ak es
r ic
Ġt e
fere nce
o ver
Ġacc ur
ĠS ection
Ġsec ond
Ġst art
Ġopt im
Ġrequ est
b r
Ġ 9
ys ical
Ġb us
Ġmeas ure
Ġinclud ing
Ġs oc
ur al
Ġimp ro
Ġpartic ular
ech an
im es
Ġrese arch
Ġs ur
Ġch ang
al ity
S T
Ġimport ant
Ġb r
act ion
Ġout put
Ġstr ateg
Ġcor re
ĠI P
it or
om et
Ġco st
Ġen viron
he nt
Ġse ver
Ġvulner abilities
Ġdisc uss
ĠR e
Ġaut om
Ġh ack
Ġpa per
Ġpro duct
Ġc urrent
Ġris k
Ġavail able
ĠThe se
Ġre le
t he
ro ss
Ġrep resent
Ġad v
Ġs ince
Ġor ig
Ġser vices
Ġl ong
Ġ .
ing le
Ġsec ure
Ġtechniqu es
Ġsh own
Ġch ar
Ġd em
Ġro b
Ġcomm on
Ġo pen
1 0
Ġm echan
our ces
oc us
Ġval ues
ro p
an nel
Ġen g
w ork
Ġd uring
Ġh ost
Ġstand ard
Ġm ight
Ġdet erm
Ġm uch
ri pt
Ġst ill
it es
l i
ul ation
Ġanal y
p ec
Ġpriv acy
Ġpr act
Ġfil es
in u
Ġup d
Ġfr ame
ĠH e
ĠW hen
Ġpar amet
ĠS ecurity
du ce
p ect
n et
Ġle ad
Ġs ource
Ġmulti ple
Ġint e
ail s
r ast
Ġs ingle
Ġinv est
Ġl ine
ent ly
Ġin it
Ġint ro
Ġpred ict
i ence
Ġow n
Ġcomm and
Ġcr it
i ly
Ġt as
Ġs ection
Ġb as
m iss
Ġf ocus
st and
ist ic
Ġkn own
ere st
Ġsever al
ot ential
ab les
Ġb re
p ar
Ġmess age
ĠT r
Ġcommun ication
Ġto p
ict im
ord ing
Ġt ake
Ġl ab
led ge
Ġmechan is
Ġtool s
Ġan other
Ġdep end
Ġn ame
ial ly
Ġsc he
Ġst ore
Ġim age
Ġof ten
ust om
an ts
Ġn odes
Ġ ed
ic ro
ĠAn d
ver age
Ġexper im
Ġgener al
Ġem ploy
Ġprev ious
Ġf ul
Ġdef ense
v iew
ch ie
Ġp otential
er ing
Ġweb s
Ġus es
Ġp ur
ĠIntern et
Ġex pl
as h
Ġv ictim
Ġexplo it
ffic ient
it ect
Ġind ivid
Ġaut hent
Ġvulner ability
Ġident ify
Ġcall ed
Ġ err
Ġen s
Ġexam ples
Ġgr aph
n ed
Ġc le
p or
Ġa chie
rib ution
Ġar ch
et y
Ġd el
an c
Ġsign ific
indow s
ĠâĢ ĵ
Ġproper t
c on
t o
Ġp ay
Ġr ate
l er
Ġ ,
an k
Ġinclud e
r on
Ġm ed
oc u
00 0
it her
Ġsc en
A N
Ġob tain
it al
it ions
am es
Ġb l
Ġle g
at ors
res p
at a
Ġshow s
m it
Ġ x
Ġ== =
Ġd ue
Ġs ize
re t
Ġindivid ual
Ġcom b
h ip
Ġcompan y
ac hes
at her
el f
Ġresp ect
re at
Ġadvers ary
Ġc ustom
Ġf l
a x
e ad
Ġstud y
oc i
Ġro ut
Ġbus iness
Ġacc ount
Ġn ow
Ġv ir
Ġcan not
Ġpro f
Ġsignific ant
w it
Ġre as
Ġch annel
ul es
Ġint erest
m in
Ġn ode
Ġtyp es
ang u
Ġp res
ĠT able
Ġinst all
Ġl ess
Ġinte gr
ĠA P
Ġm ade
Ġph ysical
s c
gr aph
Ġh um
Ġb en
Ġcomple x
Ġknow ledge
i vers
Ġb et
Ġch all
Ġch ange
2 0
Ġsa id
yn am
Ġorgan ization
ĠA pp
e e
er g
S A
Ġconn ect
re n
ĠE n
Ġvari ous
Ġme ans
Ġcomp rom
Ġenviron ment
ry ption
Ġm ark
ĠG o
ac ter
Ġo cc
l ing
ob ile
Ġind ic
in ation
Ġsp ace
Ġsoc ial
Ġabo ve
Ġex tr
Ġinv ol
Ġprovid es
Ġallow s
Ġ z
Ġframe work
Ġunder stand
t ic
Ġwhe ther
Ġ Z
Ġbu ild
Ġc ar
at form
Ġrob ust
u le
Ġloc al
Ġcon d
or ts
x t
Ġv is
Ġh ig
resp ond
Ġdatas et
Ġd ocu
Ġscen ari
Ġarch itect
Ġw ant
Ġexec ution
Ġf low
Ġmanag ement
Ġgo od
Ġtr ust
Ġvers ion
bers ecurity
Ġf in
o v
P S
Ġpat h
in ts
i res
Ġcons ist
Ġse arch
Ġch o
Ġv ia
Ġ Q
Ġn orm
Ġval id
h ing
Ġbehavi or
Ġfe w
Ġf urther
Ġaccur acy
Ġc ases
Ġin struct
Ġbet ter
e ed
r u
ord s
Ġcor respond
du ced
ar c
o T
on se
iv ed
Ġpolic y
Ġanaly z
ĠW indows
Ġattack ers
ĠR es
ir d
i o
it ing
v en
g er
Ġpo p
ish ing
Ġim ages
em pt
Ġd id
Ġ ut
Ġcer tain
A T
Ġ2 0
E E
Ġb est
iz ations
Ġs he
Ġw orld
Ġdif f
o graph
Ġsa f
Ġchar acter
Ġgo ver
ar ly
is on
Ġsm art
x im
Ġfunct ions
ec ess
end ed
t ime
ac es
p ro
Ġl angu
I n
a ve
m ed
e w
ig ur
Ġp ort
re qu
Ġc ent
is hed
Ġcorre ct
Ġrel ated
tur b
A R
Ġe ither
Ġlab el
Ġon line
g et
ect or
Ġd ynam
am p
Ġbe l
Ġf ield
A C
Ġcont ent
Ġte am
Ġcre ate
Ġ '
Ġrequire d
E R
in c
Ġb row
Ġpl atform
ri es
a ult
Ġmon itor
Ġqu er
ate ly
Ġprot ect
S S
Ġmess ages
N N
Ġlo ss
Ġdist ribut
Ġeng ine
Ġem ail
Ġre tur
Ġc rypt
Ġinvest ig
t ific
Ġgover n
Ġp ost
Ġ ide
ac he
Ġev ent
th ough
Ġorig inal
Ġdat ab
Ġtechn ology
if ier
ib ility
Ġne xt
ĠS o
ess ion
Ġd ig
R EF
ĠO ur
Ġs ent
ĠI D
m er
r a
bo x
an ces
ĠD e
Ġre f
Ġclo ud
ĠM an
Ġper turb
ĠThe y
Ġv iew
her s
Ġre pl
Ġimp act
Ġqu est
Ġf ail
al e
Ġcoun t
Ġcl ient
b it
us ion
Ġt erm
ut ions
Ġrun ning
ĠOn e
ir c
j or
Ġauth or
Ġsam ples
Ġalgorith ms
rast r
Ġp age
Ġb ound
Ġpat tern
Ġexist ing
Ġt er
Ġmin im
Ġse qu
og le
Ġass oci
pp ing
u c
1 2
I D
ĠWh ile
Ġsuccess ful
Ġatt empt
Ġ es
Ġgener ated
Ġdist ribution
Ġl it
g est
Ġcompon ents
Ġ $
Ġhum an
ic ult
Ġcrit ical
Ġconsid ered
T P
Ġyear s
ell ig
Ġe le
ain ed
t ual
Ġm obile
w ays
r al
Ġimpro ve
Ġstr ucture
Ġcommun ic
Ġde ploy
ĠI oT
Ġres ources
Ġs omet
f ace
s h
Ġhard ware
I N
ĠS c
Ġn ecess
Ġl ink
ist r
Ġdef in
Ġma jor
Ġoper ations
ri or
ep end
Ġlay er
Ġlo ad
ut ure
ill ion
b ed
p o
Ġsol ution
at t
ut e
al th
Ġle ast
Ġcy bersecurity
Ġprev ent
on str
Ġreas on
Ġresp onse
Ġsim ple
c o
Ġind ust
miss ion
ly ing
Ġneed s
Ġd en
Ġcomple te
Ġdiff icult
ĠY ou
Ġpl ay
Ġter ms
Ġm y
Ġauthent ication
Ġconf igur
Ġth us
Ġdevelop ment
ab ly
Ġcre d
o id
Ġdem onstr
Ġinter n
Ġchang es
Ġme an
o S
Ġenc ryption
Ġimplement ation
ĠW ith
Ġpro ject
ĠGo ogle
Ġpriv ate
Ġ /
Ġc al
Ġac ross
Ġcompan ies
Ġr ight
Ġf ac
w ay
Ġcon struct
read y
ĠA tt
Ġrequ ires
in s
og n
as ing
Ġhig her
ire d
Ġinst ance
Ġdef ined
Ġpl an
ĠH T
Ġcont ext
Ġco p
er nel
on om
m an
Ġl aw
Ġparamet ers
Ġinf rastr
Ġerr or
Ġenc rypt
Ġa round
se qu
Ġprovid ed
Ġth ough
Ġpur p
Ġal ready
Ġeffect ive
Ġf requ
Ġaddition al
Ġrem ote
Ġke ep
Ġc aus
i ver
Ġdesign ed
Ġinit ial
ĠS ince
Ġg ame
Ġclass ification
Ġresp ons
Ġprot ection
ĠIn t
at ch
igh ts
Ġl ast
Ġf uture
1 5
Ġthreat s
Ġ her
Ġl a
Ġoper ating
Ġorgan izations
ĠC y
ut h
ab l
Ġc apt
ĠS er
E C
ver t
Ġlike ly
Ġm aking
2 01
Ġprob ability
Ġl at
O S
id ence
pl ay
al se
Ġrem ain
g u
lo b
P U
Ġt imes
Ġt ur
Ġtr ack
ĠA fter
Ġtr y
Ġtest ing
r act
le vel
m ing
i ents
s ing
ĠB y
Ġcon str
in ary
Ġam ong
Ġdef end
Ġprogram s
Ġser vers
Ġal ways
ĠâĢ Ķ
ĠB ut
Ġf our
l ass
Ġpub l
ar ing
Ġd r
Ġdirect ly
Ġprocess es
Ġrese arc
is ing
bo ok
en ces
ĠS ystem
Ġp rior
he re
ĠU S
Ġass ess
Ġocc ur
iz ing
g ed
Ġm akes
ĠS ec
Ġincre ase
ĠM ore
Ġwork s
Ġstrateg y
id d
e es
om m
Ġloc ation
Ġdatab ase
Ġpl ace
o od
Ġlangu age
c ent
Ġs at
Ġr ules
h old
Ġcons um
t al
Ġprotocol s
Ġest im
Ġaddress es
pp ed
er n
Ġt ext
Ġdevelop ed
Ġev ents
Ġf ix
Ġa verage
Ġcontain s
1 1
Ġc ard
Ġstr ong
Ġdescrib ed
N S
Ġnorm al
Ġgener ate
Ġful l
Ġhow ever
ition al
Ġarchitect ure
d o
ĠM icro
Ġpack et
Ġtas k
lo c
Ġb it
Ġst or
Ġl arg
Ġvulner able
Ġiss ues
i od
ro id
Ġk ernel
h ic
Ġdec ision
f for
Ġh im
ens ion
Ġma xim
Ġgovern ment
Ġwebs ite
Ġperson al
Ġtechniqu e
Ġcre ated
Ġl ater
Ġam ount
ĠA t
ens ive
Ġpresent ed
Ġens ure
Ġsc an
Ġb ro
ĠWe b
Ġr ange
o ot
l u
Ġel ect
er o
Ġvir tual
1 9
Ġappro aches
Ġhe re
Ġapp ear
act ions
Ġpo ints
re am
ap s
Ġsche me
in ally
R L
Ġm is
d ay
Ġcon cept
Ġth ird
Ġs k
Ġdocu ment
Ġacc ording
Ġits elf
Ġd one
ĠA r
E S
ellig ence
Ġrequire ments
Ġhe ad
Ġcorrespond ing
Ġoper ation
Ġs em
Ġchall eng
. "
Ġtrans fer
Ġ &
ĠAtt ack
Ġest abl
Ġsign ature
Ġrec ogn
Ġtarget ed
Ġf ore
Ġcal c
Ġbl ack
er pr
Ġmechanis m
Ġ1 2
a ir
oun ts
Ġf ree
Ġdown load
ĠS h
so ft
Ġc irc
olog ies
Ġst ates
Ġqu ant
Ġd ri
Ġsu g
iqu e
Ġre d
Ġmark et
Ġpr im
p ly
Ġpartic ip
Ġproble ms
Ġsh ort
Ġgr ad
Ġassoci ated
Ġco ur
Ġinfrastr ucture
for ce
Ġper iod
Ġs ite
ĠN etwork
c hed
Ġc ache
Ġint r
Ġth ink
ce ed
Ġexperim ent
ist ics
Ġf alse
Ġdig ital
ol ution
Ġse en
Ġse par
Ġun t
Ġinst ead
ĠThere fore
Ġsug gest
it ig
A P
Ġact ions
Ġt em
Ġus ually
ac ts
ivers ity
Ġ ve
Ġav oid
Ġre view
at ic
w w
ul ate
Ġst e
ul ated
C P
c ing
Ġut il
Ġbec ome
Ġconstr ain
em ber
an ced
Ġact ion
Ġbel ie
ĠD ata
Ġgo al
Ġpropert ies
Ġmain tain
Ġdeterm ine
b y
Ġke ys
Ġa ud
I ST
1 6
Ġ )
I T
Ġsol utions
Ġcer tific
b ack
o ol
Ġlim ited
Ġcon duct
Ġv ol
Ġcoun ter
Ġs it
Ġent ire
Ġad min
M L
Ġneed ed
Ġpro of
ĠI m
Ġen ough
im inal
Ġs ide
Ġsign al
c hes
Ġappl ied
ar ies
ic es
Ġlim it
s ide
Ġto o
Ġtr ig
as ter
v ant
ĠTh us
v al
ĠI I
Ġla un
k ing
Ġpack ets
Ġab ility
Ġe ffor
Ġv ide
n ces
Ġk ind
Ġsim ply
Ġ u
g es
Ġcompon ent
Ġm itig
iz es
Ġpop ular
ĠS im
Ġne g
Ġreport ed
Ġconfigur ation
a im
Ġreg ard
Ġha pp
Ġrel ations
Ġto tal
Ġsens itive
st ant
eng th
Ġh y
Ġclass ifier
O R
Ġbe low
at ically
Ġbu g
Ġve hic
Ġconn ection
t le
Ġc ause
ans om
Ġsu m
ru pt
Ġapp s
Ġtr ad
Ġpro ced
Ġw ide
Ġdistribut ed
Ġr ather
s et
Ġcont inu
Ġdet ails
if i
Ġsec ret
Ġspec ial
Ġeas ily
lob al
Ġnecess ary
Ġset ting
S P
Ġs ay
l ight
ĠS ome
Ġconn ected
Ġachie ve
Ġa im
k n
Ġpolic ies
ĠCon t
E T
Ġcomp ared
Ġrespect ively
Ġsc ript
T h
Ġal ong
Ġatt ribut
O N
Ġg ive
Ġactiv ity
Ġm iss
Ġbrow ser
Ġinclud es
A M
Ġha ving
m a
ĠA cc
ort h
Ġass ign
il t
Ġo pp
ĠI T
Ġcomprom ised
N et
ĠMicro soft
he ad
Ġactiv ities
Ġt im
Ġre t
ward s
um p
a f
n e
Ġident ified
re en
Ġse em
at h
st it
Ġg ain
A D
ch ing
Ġlow er
Ġe fficient
Ġ ill
inu x
Ġsel ect
Ġperform ed
ak en
Ġli br
ative ly
Ġ1 00
Ġare a
p ort
ĠIn d
Ġm illion
Ġimplement ed
w h
Ġuse ful
ĠAP I
Ġd est
it imate
Ġw ar
av a
Ġpro m
Ġf am
Ġac cept
Ġdet ail
Ġexp ress
Ġle ak
Ġdynam ic
Ġresearc hers
Ġph one
ens es
Ġpr inc
Ġs us
Ġre st
Ġextr act
Ġmed ia
on ym
Ġother s
Ġt able
f act
id es
ĠB e
Ġd er
Ġv i
Ġsub ject
Ġs wit
Ġle t
Ġsam ple
ĠP h
tern al
ĠF urther
Ġstore d
Ġs ym
Ġiss ue
Ġsc ore
Ġinput s
Ġw ords
med i
Ġde ep
ir m
Ġad o
re g
C S
er t
oc k
Ġcomput ing
Ġun ique
Ġm ot
Ġunt il
Ġbe g
Ġauth ors
Ġph ase
m ost
Ġa ware
Ġevalu ation
ĠN ote
iv ing
Ġgo ing
Ġrec ent
Ġth ings
ar ant
enc ies
Ġl if
if ically
Ġro ot
ĠAnd roid
Ġscenari o
Ġp ut
ĠC I
pec ially
Ġc are
Ġmechanis ms
iv ity
s p
str ict
Ġcoll ect
Ġnum bers
Ġwork ing
Ġno ise
t y
Ġ #
c r
Ġmem bers
" .
ĠAl l
Ġsomet hing
w ise
Ġsur ve
" ,
Ġf ire
Ġre ve
Ġprocess ing
il it
Ġexperim ents
Ġincre asing
Ġne ural
1 3
Ġben ef
ĠO S
Ġet c
Ġevalu ate
Ġtrain ed
Ġsit u
Ġcl aim
Ġem bed
os es
Ġd ay
Ġpre c
Ġstep s
ust r
i um
Ġobser v
Ġph ishing
ic it
ĠCom m
Ġf ar
Ġadv ant
Ġact ually
Ġpassword s
Ġtas ks
Ġcomput ers
Ġrece ived
Ġfollow s
er c
Ġrec ord
, "
Ġit er
Ġvari ables
Ġper cent
Ġcrypt ograph
li ke
Ġrobust ness
Ġleg itimate
Ġgro w
Ġassum e
z z
ĠF ace
ĠS e
Ġwr it
ĠThe n
one y
5 0
Ġmonitor ing
ĠR ec
ĠCom put
Ġr ansom
ate gor
Ġh old
Ġg reat
Ġim pl
S M
Ġb i
is es
tt p
Ġbas ic
Ġ201 8
iven ess
Ġin j
Ġquer y
Ġlear n
in ter
Ġm ove
Ġeas y
is f
ĠD ef
op e
ĠF irst
al y
Ġide a
p art
th ing
Ġpropert y
Ġpa ir
Ġ ec
Ġclo se
t es
Ġset s
ĠM od
Ġt akes
Ġcomp ar
Ġb ig
Ġtyp ically
Ġintern al
Ġ <
in ing
Ġobser ved
Ġadd ed
Ġupd ate
Ġsh ared
Ġquest ion
Ġgu arant
Ġencrypt ed
on t
Ġ201 7
ĠN ew
Ġcapt ure
an e
ag ing
Ġqu ick
w all
Ġw ays
ĠJ ava
and s
Ġrequest s
m ore
i k
Ġexp ected
yp e
Ġsequ ence
Ġne ver
ĠAl though
4 8
Ġre strict
Ġintro duced
Ġre fer
Ġw ire
ĠL inux
- -
se e
kn own
Ġsh are
Ġacc ounts
Ġad apt
Ġar tic
Ġdiscuss ed
Ġinter face
ĠU RL
Ġen erg
1 7
Ġre duce
Ġsens or
l ation
Ġstor age
ove red
1 8
Ġm ention
s w
Ġon ce
Ġs ites
D P
Ġ =
ist s
y nt
us e
ar l
Ġadmin istr
3 2
Ġcall s
Ġindust ry
Ġes pecially
al ing
Ġsat isf
Ġprop ose
Ġbec om
epend ent
Ġl ength
Ġcond itions
Ġcop y
Ġa ffect
ĠF inally
Ġlo t
Ġb inary
f low
ĠTh at
c y
ĠCy ber
Ġembed d
ari ly
in ks
Ġreg ular
l ect
Ġtechn ical
Ġgroup s
Ġsaf ety
Ġenerg y
Ġthere fore
Ġc ategor
Ġdef ine
Ġan t
Ġ19 9
Ġmod e
ify ing
Ġcommun ity
Ġact ive
Ġg lobal
Ġcon v
Ġwr ite
Ġv ector
ĠFace book
Ġretur n
ĠO r
Ġtr ue
res hold
ab or
Ġstrateg ies
Ġdef ault
ĠO nce
Ġwebs ites
Ġro le
Ġproduct s
Ġobtain ed
Ġident ity
Ġwe ak
ch ain
ĠP l
( )
Ġ1 6
Ġact ual
Ġlarg er
Ġz ero
Ġfun d
Ġdist ance
Ġt ri
ter ing
Ġc amp
Ġpract ice
Ġh ome
I C
Ġsem ant
Ġdomain s
ĠAd d
Ġcomput ation
Ġcont in
ĠUn ited
Ġgener ation
Ġc ore
get her
Ġto gether
Ġex ternal
Ġconc er
Ġlevel s
Ġag ent
Ġint elligence
ĠF ig
on es
Ġcap abilities
Ġt aken
y le
Ġ1 5
ff er
Ġrelations hip
Ġch ain
Ġan n
Ġpattern s
is m
Ġmon th
Ġvari able
ĠE ach
Ġtechn ologies
Ġill ustr
Ġn ames
Ġdiffere nce
g ress
V E
Ġpriv ile
Ġbro ad
id er
Ġscenari os
Ġrel i
ar m
ri x
/ /
Ġrec omm
Ġsaf e
per v
Ġa ff
Ġh ist
Ġ201 6
end s
u zz
if ies
Ġun c
Ġform at
od ing
Ġres ource
Ġre ach
Ġdet ected
p ri
g ing
a pp
ĠT echn
I P
Ġst ack
A S
Ġinstruct ions
Ġ {
Ġsel f
d e
Ġinclud ed
m et
Ġg re
Ġar gu
ac ed
r ics
Ġw or
Ġp i
Ġv end
Ġparamet er
ĠPro t
1 4
Ġde le
anc ial
Ġas pect
Ġvide o
ĠA ss
Ġth reshold
t ings
Ġinf lu
l ated
Ġoptim ization
b e
Ġform al
Ġvi ol
8 0
ĠD NS
Ġoptim al
Ġbu ilt
i ation
od y
Ġpurp ose
Ġcomplex ity
Ġappro pri
Ġhe alth
en ge
Ġchalleng es
Ġinstruct ion
Ġdef enses
ĠA C
Ġwh y
Ġdatas ets
Ġinc or
Ġclass es
Ġle ft
p os
att ack
Ġex act
m ar
Ġan om
ĠA ct
Ġrele vant
Ġs ynt
Ġm o
Ġmeas ures
ing u
ĠA S
Ġde g
Ġd on
Ġex ch
o very
ore d
w e
ĠS p
Ġfor ward
Ġo ption
im in
a ign
Ġl ack
Ġele ments
Ġ ess
a ud
Ġcustom ers
: //
Ġcle ar
Ġhack ers
Ġ201 9
Ġan sw
Ġbre ak
p ass
Ġre ally
Ġfunction ality
Ġdefin ition
ĠS S
Ġapp ly
Ġsens ors
Ġautom atically
o ff
Ġ :
Ġas k
Ġp ages
Ġd am
Ġlay ers
Ġpredict ion
Ġs ure
ĠG r
M S
Ġemploy ees
Ġpos itive
Ġm oney
Ġb ank
Ġcom e
Ġfe ed
r it
Ġman ip
Ġback do
ĠC PU
du ces
le x
ĠD es
u fact
ĠAn other
ip her
o int
Ġr ule
ĠS u
Ġsp eed
ar s
ĠL e
Ġengine ering
ĠUn iversity
Ġoff ic
Ġp ast
Ġobject s
ous ly
Ġris ks
Ġsignificant ly
Ġf inal
a h
Ġver ification
Ġsim pl
Ġstud ies
g round
D oS
ĠP C
el ine
Ġcred ential
s ed
2 5
Ġe arly
Ġresp ond
Ġon es
ĠMore over
Ġlit tle
Ġdescrib e
I S
Ġado pt
Ġm icro
Ġcour se
Ġcontrol s
Ġcomp et
ĠIn formation
Ġr ad
ce ption
Ġtrans mit
em b
Ġc ross
Ġbeg in
Ġcommunic ations
in a
Ġbo ok
L E
Ġn at
Ġreg ist
ĠâĢ ĺ
ĠEn g
iv al
Ġs ources
Ġcamp aign
O M
Ġmach ines
Ġover all
ĠH ere
Ġallow ed
ifi ers
Ġransom ware
Ġal most
Ġhigh ly
2 4
Ġw ord
Ġl ight
I M
ect ors
Ġwire less
s u
i ency
lo t
o le
Ġbuild ing
m ail
Ġinvol ved
Ġhas h
Ġrem o
Ġfix ed
ĠO pen
Ġmaxim um
at ory
Ġ1 1
Ġins ide
m es
Ġf ive
Ġvers ions
Ġtrad itional
am ed
Ġs ession
Ġsk ill
Ġanalyz e
Ġ1 3
b ol
Ġb ase
ri ption
c ript
Ġexecut ed
u ary
Ġcomp il
Ġcl ick
ap e
ĠF rom
Ġstat ic
Ġc ur
Ġd i
Ġcont ract
Ġconstrain ts
ver se
ac hed
Ġfire wall
Ġp en
Ġf igure
Ġresult ing
ĠSt ates
Ġser ies
Ġsel ected
is ions
Ġlit er
Ġchannel s
r ary
ed er
Ġcle an
Ġadvant age
Ġinter p
ap ter
Ġqu ality
Ġintegr ity
Ġexper ience
Ġlog ic
av es
Ġdevelop ers
Ġb its
Ġchall enge
Ġen able
ic ated
Ġde v
duct ion
Ġ201 5
ĠAcc ording
al k
A L
el s
Ġcont ribut
ab led
t on
Ġj ob
Ġmod ule
ul ations
Ġ1 4
o per
t ext
wit ter
Ġset tings
Ġcho ose
Ġfrequ ency
Ġline ar
Ġ2 5
Ġen force
Ġwrit ten
Ġnot e
Ġappropri ate
Ġthe ore
Ġsp e
un e
Ġful ly
Ġfin ancial
ĠN ot
Ġgr id
ct ion
Ġh our
d is
Ġst ream
Ġev idence
Ġac qu
Ġperturb ation
Ġl inks
ĠHT TP
Ġstr ing
R E
ro j
âĢ Ķ
ĠF r
el ves
Ġcontrol ler
Ġunderstand ing
Ġc ell
Ġconnect ions
Ġag ents
Ġexecut e
um e
Ġprovid ing
Ġconsist s
Ġlong er
Ġcon stant
ident ial
ĠL i
res ents
Ġmat rix
Ġover head
Ġt ag
g reg
du cing
Ġcoll ected
Ġgrad ient
Ġsu fficient
ot s
Ġf ace
g o
ĠN ow
Ġup on
Ġdis play
Ġ201 4
Ġinterest ing
Ġwho le
al le
Ġl ines
ĠCom p
Ġprevious ly
Ġman ufact
Ġcond ition
Ġare as
em ents
Ġy et
Ġcl ients
ĠS pec
ĠFurther more
Ġbeh ind
Ġtarget s
idd en
Ġtrans form
ĠA ut
ĠU sing
Ġrep resents
ĠA g
Ġmention ed
Ġf ake
e an
Ġcommand s
Ġpo ison
k en
Ġexp ect
ĠD ec
Ġreve al
Ġ1 8
it ud
mer ic
Ġcr iminal
act ive
Ġrec ords
Ġal loc
os s
Ġess ential
Ġsp o
Ġent ry
po int
Ġlook ing
9 6
n a
Ġn ature
pp er
ĠC PS
Ġd ays
ous e
Ġupd ates
Ġpubl ished
W e
Ġpos ition
Ġindividual s
ect ions
ĠWh at
Ġ3 0
Ġrep orts
o x
Ġsuccessful ly
Ġsign als
Ġrec on
Ġh ttp
ren d
Ġtrans action
ĠO ther
Ġquer ies
uct ures
Ġ201 3
Ġtrust ed
Ġdo ing
Ġrele ased
ĠA I
i i
Ġcl us
Ġwe e
L S
Ġinstall ed
Ġcom es
Ġ5 0
end ing
Ġeffect iveness
Ġhapp en
Ġintro duce
al f
ĠT CP
Ġcent ral
ol l
O P
are nt
Ġlo ck
Ġsh aring
u rop
Ġout side
Ġdec re
) ;
Th is
Ġpay load
ĠK e
Ġs n
o ber
Ġassess ment
ĠIn st
Ġpract ical
Ġquest ions
s ec
os en
ard s
Ġtur n
r ation
Ġthe ory
Ġit em
Ġsche mes
Ġlibr ary
Ġinter net
er ial
Ġal tern
a z
art ment
Ġlif e
Ġw indow
ort un
ag ed
Ġmet rics
is ter
ec ause
Ġpart y
ĠB l
Ġbre ach
uth or
Ġincre ases
ĠA meric
Ġmeasure ments
Ġgener ally
c l
Ġem erg
Ġm ag
Ġwh ose
EE E
yn ch
ul l
im ension
Ġblock s
Ġt ell
igh b
Ġsc ale
Ġar bit
Ġun d
Ġquick ly
Ġdisc overed
Ġph ot
v ious
Ġatt ention
Q L
Ġpotential ly
ĠC l
Ġd riv
Ġent erpr
s ers
Ġcheck s
Ġe ffic
or ing
ĠN o
ĠAl so
E N
Ġdel ay
il i
Ġstart ed
ĠN ational
Ġinc ident
Ġec onom
7 0
n ow
Ġprof ession
il es
Ġparticip ants
Ġbo x
Ġad vert
c lass
Ġf ing
Ġcre ating
ĠM L
Ġme et
Ġcomprom ise
Ġpres ence
Ġperturb ations
Ġoff er
Ġplatform s
ĠM ost
Ġcertific ate
Ġcount ries
Ġpart ies
ĠM et
Ġprot ected
Ġexplo its
ĠE urop
Ġsp am
Ġsym bol
Ġen h
Ġbecom es
Ġse g
Ġartic le
ĠSim ilar
Ġcryptograph ic
am er
Ġcomm it
ack ing
A s
Ġro und
Ġdocu ments
Ġthe ms
O C
ĠT witter
Ġobser ve
ers on
Ġtrans actions
Ġab str
av ing
Ġg ives
Ġthems elves
ĠMan y
Ġde al
Ġinj ection
ĠL et
Ġe arl
Ġin ference
Ġb ad
Ġcustom er
Ġt aking
Ġdeg ree
ĠI EEE
Ġsus p
Ġpro duce
Ġsome one
ynch ron
Ġrele ase
Ġim medi
8 8
ĠCont rol
Ġcoll ection
Ġallow ing
ĠTr ans
Ġinf ected
er ous
Ġmean ing
Ġwh ite
Ġvis ual
ĠS C
Ġspo of
re me
Ġcon ver
or n
Ġcredential s
Ġfr aud
Ġo p
Ġprogram ming
ot h
Ġs ense
A B
Ġf irm
Ġbelie ve
Ġincre ased
Ġdemonstr ate
ĠC ent
a i
c le
ĠD et
Ġvari ety
Ġeffor t
Ġprinc i
Ġcon sequ
Ġdisc lo
Ġrece ive
Ġpar ts
Ġsmall er
Ġstandard s
Ġnew s
3 0
Ġblock chain
Ġcirc u
ĠG ener
Ġequ ival
lo ud
t ical
olog ical
Ġexpl icit
Ġerr ors
8 6
ri e
ress ion
ĠA T
Ġan onym
V M
r am
a ff
ĠComput er
Ġtrans mission
il ities
o ok
Ġsim ulation
Ġre ference
ĠP re
Ġth ing
Ġr ates
) :
Ġexpl ain
r ing
Ġcharacter istics
ur ance
Ġmeasure ment
id ed
r ay
Ġde b
Ġcompar ison
Ġreg ion
Ġautom ated
Ġind ependent
fere nces
Ġag greg
por ate
Ġsp read
Ġfact ors
Ġby tes
Ġa ir
Ġcont rast
ĠP er
Ġliter ature
Ġbackdo or
Ġus age
Ġ *
Ġst age
Ġdefend er
e arch
Ġcurrent ly
Ġsurve y
ĠN e
Ġproced ure
Ġb and
Ġshe ll
ĠF e
Ġcontain ing
Ġf lo
ĠD DoS
Ġsepar ate
ĠV M
Ġinst ances
p ir
Ġch osen
ĠS m
Ġs low
n ers
re te
ĠE ven
Ġnat ural
Ġdirect ory
Ġqu ite
Ġsend ing
or g
imate ly
ag ement
ĠB ecause
id th
w orld
miss ions
Ġlo op
ent al
Ġpi ec
Ġst op
_ _
c ode
Ġb al
Ġre ly
lic e
er tain
Ġcost s
Ġann oun
ĠS P
Ġsc reen
Ġtrig ger
Ġt ree
Ġem ails
Ġloc ations
Ġcomput ational
Ġbu ffer
Ġ201 2
v ent
stit ute
ĠS uch
Ġeffect s
Ġto wards
Ġdist ingu
ut es
ro up
Ġco ver
L L
Ġcomp are
ĠApp le
ic ations
Ġbas is
c ast
x y
Ġspec ified
Ġaff ected
ĠO b
Ġne ighb
u ck
ĠD ep
Ġmat erial
Ġal though
Ġintr usion
Ġ== ==
Ġadd ing
Ġcomb ination
Ġfail ure
Ġtr ace
it able
Ġs ound
ĠR uss
Ġfollow ed
Ġleg al
ĠRe g
Ġattempt s
Ġfact or
k y
Ġdeploy ed
pect ive
n ame
on est
Ġdetail ed
le ar
ph one
Ġvehic le
Ġvir us
o h
Ġconf igure
Ġrespons ible
Ġres il
Ġd rop
ri al
ict ion
Ġsitu ation
Ġprim ary
Ġcomplete ly
Ġvictim s
Ġobject ive
ĠI C
Ġwide ly
2 2
Ġsend s
ition ally
Ġrep e
Ġver ify
Ġw a
yp ot
Ġtry ing
Ġab s
Ġwr iting
Ġcaus ed
Ġeffect ively
Ġfind ing
6 4
Ġt re
Ġaspect s
I I
E D
Ġto day
Ġint ended
Ġrecomm end
Ġmot iv
ĠR ep
ĠT or
ĠF ire
Ġh idden
Ġmod ified
ens ions
a res
for t
Ġf ri
ĠP riv
y th
ron ic
ĠD is
Ġdr aw
Ġspec ifically
Ġa way
Ġspec ification
Ġrepresent ation
L C
Ġco ord
Ġcho ice
Ġrecogn ition
Ġearl ier
Ġ20 20
Ġed ge
ib ly
Ġneg ative
ub lic
Ġc ipher
Ġcomput e
itud e
re lated
Ġre v
me as
r ight
Ġadv anced
ĠR ed
Ġsc al
Ġin form
en e
Ġ1 7
Ġinit i
Ġopp ortun
roj an
it ors
Ġaware ness
Ġun known
Ġed uc
Ġcap ability
Ġcategor ies
Ġmod ern
Ġf ast
m at
ĠD NN
u ly
Ġg ot
ĠB ob
Ġind ex
Ġdam age
us ed
Ġmodel ing
ac ing
Ġcol um
Ġhand le
ren g
ĠRes earch
Ġd ed
p ite
y ond
i or
Ġp ress
Ġhack er
Ġexch ange
Ġpath s
ĠC ons
Ġen ables
y ing
Ġ8 0
Ġchang ed
O T
Ġexper ts
Ġenviron ments
Ġele ment
Ġpro ve
Ġpurp oses
Ġpat ch
Ġpract ices
A V
Ġindic ates
ĠSystem s
Ġf ault
Ġgre ater
br id
Ġeffic iency
Ġ201 1
N IST
Ġrel atively
Ġrun s
Ġcontin ue
Ġrec ently
Ġlabel s
us c
Ġattribut es
it ical
Ġsupport ed
ĠSec ond
as k
Ġel se
Ġdirect ion
Ġno vel
Ġprop ag
Ġunder lying
Ġass ets
od ed
Ġr a
t op
Ġhack ing
Ġassum ption
ific ations
Ġhost s
h ib
Ġad j
t ers
Ġg e
ĠH ence
ĠB it
st yle
Ġrandom ly
ex e
Ġtrig g
Ġre n
Ġcar ri
l and
ĠN IST
p s
bo ard
Ġm ap
Ġman ner
Ġdetect ing
Ġembedd ed
2 00
Ġto ok
Ġext reme
Ġrout ing
Ġn amed
Ġdec isions
ir ing
ĠS M
Ġf all
Ġinvestig ation
c ome
un ction
Ġcomm erc
ĠM ay
Ġsc hed
Ġfl aw
Ġlog s
Ġut ility
us h
ĠA R
Ġinter action
D F
Ġconduct ed
id ents
ilit ary
Ġstart ing
2 3
ĠM al
ic ate
Ġch ild
Ġsol ve
ust ed
Ġachie ved
ĠC VE
Ġstat us
Ġo ld
6 0
eder al
an ch
Ġis ol
Ġdepend s
Ġdri ve
Ġs ays
ĠAl gorith
Ġtem por
Ġcred it
m ark
Ġident ification
ĠAP T
Ġminim um
Ġpr int
Ġm ind
Ġsomet imes
Ġshow ed
ĠP a
Ġperform ing
Ġcoll abor
ĠF l
ĠE m
S cript
Ġc amer
Ġexist s
ch ool
Ġtest s
A A
Ġfing erpr
Ġconf idence
pt ions
Ġgu id
Ġprovid ers
Ġparticular ly
Ġinflu ence
Ġv ot
ateg ory
Ġarbit rary
Ġ2 4
Ġ3 2
Ġcommon ly
Ġhour s
d own
he st
Ġappro x
ĠD o
Ġupd ated
Ġun it
Ġdest ination
s ive
Ġwe ight
s pec
Ġcont act
Ġcorrect ly
ure r
Ġst reng
Ġv ary
ay er
Ġex cept
ment ation
Ġthre ad
Ġprob ably
el i
Ġag re
Ġfore ns
co in
Ġoutput s
Ġeas ier
Ġother wise
Ġfocus ed
idd le
Ġben ign
M P
ad d
u x
yth on
Ġm ass
ĠCh ina
Ġret rie
urre n
i j
Ġw ww
ĠIntern ational
Ġconf idential
Ġar t
Ġhist ory
Ġprovid er
Ġget ting
d ef
if t
P N
Ġant i
Ġh alf
w here
pl ing
Ġeffor ts
f usc
Ġswit ch
Ġadversar ies
ort ion
ir us
f ect
Ġiss u
Ġd ou
Ġm ut
Ġext ension
G D
2 1
Ġreas ons
Ġ201 0
S t
Ġstat ist
Ġn ational
Ġmet ric
Ġinc om
Ġgro und
Ġs ix
Ġopt ions
ĠQ u
ĠSer vice
Ġtr aces
Ġsel ection
s elf
Ġtim ing
Ġmajor ity
S O
Ġso ph
Ġcount ry
Ġbel ong
Ġestabl ished
part y
T I
Ġdist in
Ġfil ter
Ġcan d
ĠInt el
le g
Ġg en
Ġidentify ing
Ġchang ing
Ġb an
os ing
Ġd ate
Ġfam ily
ĠC or
Ġsc am
w idth
F AR
p ers
Ġsub s
ĠB ased
Ġoper ator
Ġent ities
ĠG u
Ġcont r
Ġin ser
Ġback ground
Ġclass ifiers
Ġdepend ing
Ġanalyz ed
ĠEx am
Ġman age
ĠE C
Ġvalid ation
Ġfor ce
Ġorig in
Ġclass ified
Ġv ectors
Ġregard ing
Ġdem and
Ġexper t
Ġres ol
or ies
Ġper mission
h ood
our n
. )
ful ly
con t
gr ad
Ġf uzz
Ġcap ac
4 0
Ġfield s
ip s
Ġcer t
Ġe ver
Ġestim ation
Ġestabl ish
âĢ ĵ
Ġl ic
ĠC o
Ġsub sequ
re hen
Ġs al
Ġcand id
Ġcomp li
Ġtrack ing
Ġser ious
Ġr ank
Ġp ix
Ġst o
Ġassign ed
ĠO ver
ain ing
Ġne ar
Ġcommerc ial
ĠS D
Ġskill s
Ġansw er
Ġmod ify
ĠA lice
Ġl ed
Ġcyber cr
Ġcar ry
al ysis
Ġprof ile
E M
ra ft
ĠAlgorith m
Ġtest ed
Ġm ix
Ġun a
act ers
Ġequ al
ĠG iven
Ġtr ade
ĠI s
e qu
ĠComm un
ĠMod el
o ice
Ġst ar
o y
at ives
Ġsignature s
Ġenforce ment
Ġanom aly
Ġlaun ch
9 9
mit ted
Ġcomb ined
Ġperform s
Ġinvol ves
N D
Ġset up
Ġlog in
ĠS tr
ĠIn ter
le t
Ġpers pective
Ġin ject
w r
Ġest imate
Ġexplo ited
Ġden ot
Ġdesc ription
Ġc ou
is ation
Ġ{ \
ĠII I
Ġoff ers
Ġd a
I G
ĠI V
ri ef
ĠJ an
Ġenterpr ise
8 5
Ġte le
ĠCI FAR
Ġmat ch
Ġdel i
ĠM ark
ĠP art
Ġgo als
Ġrem ove
Ġexact ly
c he
Ġmonth s
Ġh onest
om en
Ġvehic les
Ġt rend
a ft
Ġwee k
ĠTechn ology
Ġsched ul
l it
Ġoffic ial
Ġro w
Ġg ames
Ġfl ag
Ġpres er
Ġfunction al
it ives
id ing
Ġsemant ics
Ġproced ures
O D
ĠD uring
ĠID S
Ġchar acters
alle l
pro cess
Ġl and
Ġext ended
ĠP ol
Ġavail ability
Ġany thing
ke y
Ġappear s
Ġhe nce
Ġindic ate
d en
Ġass ist
Ġwr ong
Ġbug s
8 4
Ġm ilitary
Ġoper ators
Ġevalu ated
Ġact ors
Ġmed ical
Ġdeploy ment
Ġ q
Ġs light
Ġstud ied
Ġconc lud
P C
Ġdri ver
Ġbe yond
Ġm ail
ĠP R
Ġtyp ical
Ġlead ing
Ġor d
Ġin n
Ġf it
Ġstud ents
ĠN ext
Ġprec ise
Ġimport ance
an y
Ġsc ope
Ġb ody
Ġcontrol led
Ġcounter meas
Ġby pass
ĠS QL
Ġconsider ing
ul ating
Ġfeed back
Ġgener ating
re ct
Ġdis k
ac le
Ġconcer ns
Ġdemonstr ated
Ġ200 9
T S
Ġhelp s
Ġloc ated
Ġteam s
or der
Ġoper ational
Ġdi ag
Ġpl ain
er ia
Ġstat ement
ure d
Ġcommunic ate
ĠJava Script
Ġlead s
Ġcheck ing
Ġbehavi our
Ġr at
Ġpay ment
Ġmem ber
Ġma pping
Ġprocess or
Ġpres ents
Ġlear ned
Ġgu ess
ast ic
ĠP r
Ġflow s
y e
if f
ĠT e
Ġcr aft
istic ated
Ġdeterm ined
c all
Ġcap able
Ġanal yst
Ġform er
Ġ4 0
Ġreg ister
Ġf air
Ġw orth
Ġup load
Ġlangu ages
ĠDep artment
Ġle ver
ĠB r
Ġcertific ates
Ġc ategory
Ġsupp orts
Ġpur ch
Ġdiffere nces
Ġvend ors
Ġp ict
Ġaccur ate
Ġs ort
Ġr ights
ĠHT ML
Ġsu per
ĠInst ead
Ġd ro
Ġg ate
om in
ĠM arch
con f
Ġdec rypt
Ġpl ug
Ġimmedi ately
Ġattack ed
T C
Ġdevelop ing
Ġseem s
m od
Ġcomp os
Ġband width
U R
s ure
Ġinter act
1 00
Ġrece iver
Ġwhere as
Ġ >
f aces
ĠS he
2 6
Ġrepresent ed
ĠAdd itionally
Ġcomp rehen
Ġfe el
Ġpo ly
ĠO per
ip ment
ĠR em
t ion
Ġdes ired
Ġhig hest
Ġtrans ition
Ġben ch
Ġemploy ee
Ġbec ame
Ġp orts
ĠO ffic
Ġvol ume
Ġform ul
Ġmod ules
un g
em ic
2 8
Ġpoison ing
I t
F or
dis play
Ġs ynchron
Ġthough t
Ġcontinu ous
Ġpower ful
Ġpack age
Ġremain s
ist ing
ĠW i
Ġs ell
Ġintegr ated
ĠA m
el ines
Ġhigh light
Ġgraph s
ĠEng ine
Ġt ax
er y
ĠC loud
Ġproper ly
Ġval u
Ġstr uctures
ĠO ct
ĠI d
ĠIn c
ĠA ug
Ġproduct ion
Ġassum ptions
Ġfor ms
Ġto ken
Ġcircu it
Ġst aff
Ġdiscuss ion
Ġclus ter
Ġgr ant
Ġmin utes
S D
Ġstatist ical
Ġfac ilit
Ġprinc ip
Ġob vious
Ġmeasure d
Ġrec overy
Ġapp lying
Ġbenef it
ĠR F
Ġaut onom
Ġs l
Ġcoord in
ourn al
Ġrequire ment
Ġbo ot
Ġpo inter
ĠAd vers
u ff
Ġob fusc
Ġcent er
ap id
Ġdisc over
Ġpar allel
pr il
ĠSer ver
Ġsoph isticated
Ġnot ed
Ġd ang
l ers
Ġpen et
ĠM ach
ed ia
Ġbr anch
ĠL ab
Ġmitig ate
Ġmat ter
Ġref lect
Ġst ated
Ġattack ing
Ġequival ent
Ġpro duced
Ġb ud
Ġdes k
Ġco ok
ĠN et
Ġremo ved
ĠD irect
Ġaltern ative
Ġco verage
ĠS ym
ol en
Ġc ame
wh ich
G SM
u ge
Ġth ous
Ġinvol ve
Ġhy per
Ġw ater
ĠDe ep
Ġsum mar
Ġask ed
P h
Ġ6 4
Ġexecut able
Ġg ets
ĠC an
Ġfr ont
Ġsc ient
Ġn or
ceed ings
Ġimplement ations
Ġent ity
p re
Ġfe as
Ġoccur s
ention al
Ġf lex
Ġimpro ved
P R
end ix
Ġrun time
Ġrec over
Ġf aster
Ġrel ation
Ġretur ns
Ġb ar
Ġf ine
Ġper missions
Ġoper ate
Ġextr a
pt h
B I
Ġb rief
Ġbenef its
display style
Ġpre p
Ġclo sed
Ġpro xy
hes is
ar ial
Ġindust rial
Ġbehavi ors
Ġfund am
en ced
Ġre duced
Ġ %
F i
Ġsub set
Ġguarant ee
Ġitem s
3 5
Ġd iver
Ġbusiness es
as ion
Ġannoun ced
ĠTh reat
Ġinst it
in f
ĠM on
Ġattribut e
ĠA ccess
rop y
Ġdescrib es
Ġbegin ning
Ġev ol
Ġbr ing
Ġ ign
Ġsecond s
Ġmanag er
Ġtarget ing
Ġcapac ity
ĠO ut
ier arch
Ġhead er
Ġnot ice
Ġt end
ĠThe ore
ic ity
ĠEx plo
ĠSpec ifically
Ġobserv ation
uthor ized
Ġro om
ĠMan agement
Ġm om
h a
Ġarchitect ures
Ġconcept s
Ġcor porate
Ġcon vers
Ġ â
Ġproject s
Ġnot ion
ĠD oS
ĠS T
Ġj o
Ġevery thing
Ġmain ly
Ġmethod ology
Ġsc ience
ĠL ear
Ġunc ertain
ĠS y
Ġcontain ed
Ġow ner
Ġy ield
ĠA pril
Ġsend er
on y
ĠJan uary
Ġsupp ly
ĠE v
Ġanalyz ing
Ġexplo re
Ġs ector
m ers
Ġinst ant
Ġt reat
ĠP o
ĠS ub
ap ers
Ġex c
ult ane
Ġexpl ained
l im
Ġcont ents
ĠM NIST
Ġb log
% )
Ġquant um
Ġder ived
is k
oot h
Ġpublic ly
Ġ ult
Ġst olen
ĠJ uly
Ġdistin ct
Ġst ory
Ġinc idents
con n
Ġlaun ched
om p
U S
Ġel imin
Ġper fect
Ġvend or
ĠW ork
Ġdec e
Ġcomput ed
Ġinvestig ate
Ġbe gan
ĠE d
ĠSo ftware
Ġspec ify
ĠEurop ean
Ġcre ates
velo per
Ġ200 8
ĠJ une
Ġpo ol
Ġequ ipment
Ġg ather
w ith
ur s
A n
Ġent ries
i ate
Ġes c
Ġinter actions
ĠAd v
ĠCon ference
ĠB oth
Ġd imension
Ġthrough out
met ric
ĠSimilar ly
Ġlat est
Ġemploy ed
C C
7 5
em ble
Ġlarg est
Ġlat ter
Ġany one
Ġed ges
Ġelect ronic
ĠM AC
Ġconf lic
Ġrespons es
Ġsur face
Ġsec re
Ġlimit ations
perv is
7 4
ab ling
p ace
fort un
Ġsp ect
ĠG roup
Ġdistingu ish
el t
Ġcorre lation
ĠSe pt
Ġh ypot
Ġdec l
ĠProt ocol
Ġbre aches
Ġrecon struct
Ġrel ative
Ġdetect or
Ġsu itable
en ing
Ġextract ed
P ro
ĠPro gram
Ġfingerpr int
Ġexperiment al
Ġlibr aries
Ġen abled
Ġph ys
Ġgener ates
Ġremain ing
go ing
Ġc ult
Ġtrans port
l ist
as on
Ġinterp ret
ad ow
Ġu pper
Ġrout er
Ġpro gress
ĠC NN
Ġman ually
B M
anc y
Ġcompli ance
l ig
ĠAug ust
Ġcaus es
Ġsp lit
H A
um er
Ġs qu
ex ts
if orm
Ġmitig ation
Ġconsist ent
Ġhy brid
7 9
w o
Ġl ive
Ġpass ed
P A
ĠM in
ĠOct ober
Ġsim ultane
Ġgener ator
I R
b re
attack s
se ud
Ġins p
ĠM ult
Ġto ld
ĠT rojan
Ġun its
ĠO f
2 9
Ġstar ts
Ġintern ational
Ġr apid
Ġexper i
Ġbas eline
Ġtrans formation
Ġassum ed
f ree
Ġstore s
Ġfrequ ently
ment ed
Ġmanag ed
Ġlist ed
ĠUn der
Ġreveal ed
Ġinf er
ĠI N
ĠC S
M I
Ġs w
Ġaim s
Ġmin ing
b ound
ĠSu pp
emb ly
U D
h aps
s uch
und red
Ġcle arly
n orm
ĠM c
Ġposs ibility
3 4
Ġinterest ed
Ġlist s
Ġre verse
Ġrefer red
at s
ĠC al
Ġc odes
ist ent
ul ator
ĠSept ember
ĠSt ep
ĠJ oh
Ġd ivid
Ġstreng th
6 6
Ġ ir
Ġshow ing
Ġconstruct ion
p e
perv ised
Ġag encies
ĠIn f
Ġpat ches
ĠV PN
Ġun ivers
is co
Ġscan ning
Ġpl aced
Ġh arm
ĠPriv acy
od er
Ġon to
t ics
Ġcre ation
oss ible
Ġre duction
Ġrel ies
Ġbot net
z on
Ġnot hing
E P
Ġslight ly
8 3
Ġgo es
ĠU p
Ġem pir
at ter
ĠKe y
Ġcolum n
Ġprivile ges
Ġlat ency
Ġfind ings
H E
ĠC R
Ġprop os
Ġextreme ly
Ġp ip
ĠPro ceedings
Ġrat io
Ġpr ice
ĠT est
ad ing
ĠL og
ĠD ig
Ġs chool
Ġguarant ees
Ġco oper
Ġestim ated
Ġconsum ption
Ġcontr acts
m y
tific ial
ĠCh apter
fortun ately
Ġenh ance
ĠC ol
Ġmo ving
Ġm ill
ign ed
Ġmat he
Ġplan ning
Ġpop ulation
ce ler
Ġread ing
ĠD ist
Ġobserv ations
Ġal er
ĠTheore m
Ġex ception
5 5
Ġbot t
2 7
Ġdeb ug
Ġh ierarch
Ġmanufact urer
Ġar ray
Ġsemant ic
Ġsign ed
Ġoff ice
d it
Ġconstrain t
a ut
Ġh it
Ġrece iving
ĠC rypt
Ġfin ite
Ġterm in
ĠSt and
Ġc lock
Ġr ang
Ġdynam ics
Ġconfigure d
Ġle ave
00 00
Ġover l
Ġb illion
Ġmat ching
Ġlo st
Ġun s
ac ement
ĠIm age
Ġli k
Ġw on
ain t
Ġh undred
Ġdatab ases
urren cy
Ġman ual
Ġde veloper
Ġrece ives
af e
Ġsh all
ĠV ulner
here nt
m ary
-- --
ĠId ent
Ġback up
Ġargu ment
ĠM o
ĠP ython
re ed
Ġt err
Ġt en
Ġsusp icious
Ġtw e
Ġknow s
w ide
ĠM ac
Ġapp e
ĠAmeric an
s ecurity
Ġre put
o o
Ġc ut
Ġintegr ation
Ġne arly
ĠP e
Ġposs ibly
ĠBl ack
Ġhold s
Ġcard s
Ġeconom ic
ph ysical
Ġexplicit ly
Ġreli ability
ens ity
ru ption
spec ific
re ens
m al
cont rol
Ġabstr act
Ġcirc um
str u
Ġaccess ed
Ġv oice
Ġevent ually
Ġcarri ed
Ġal ert
E O
% .
Ġlog ical
F I
Ġkind s
Ġadopt ed
Ġp ick
ĠD ue
Ġt un
Ġown ers
l ication
fere nt
Ġle verage
Ġenc l
ĠBit coin
Ġcor rupt
Ġcol or
pl ed
Ġanom al
3 3
Ġpiec e
lud ing
Ġrepe ated
Ġres ist
Ġconc ern
Ġplay ers
c are
Ġref ers
Ġsimilar ity
9 0
Ġdoes n
end er
Ġbrow sers
Ġser ve
ill ance
Ġj ump
Ġstat istics
ĠS et
ĠAdvers arial
Ġ2 1
e v
f ix
am s
Ġchalleng ing
Ġspoof ing
Ġcomprehen sive
. ;
ĠA D
Ġste al
m ber
Ġso on
Ġun like
ĠLear ning
ĠB ack
ĠI CS
ĠPro cess
ĠP ar
ĠSc ience
Ġleak age
ĠDec ember
Ġrec ip
Ġdel iver
Ġconf ir
Ġconsum er
Ġrad io
Ġwork ed
Ġfil tering
Ġvari ants
v est
ĠAn y
us iness
Ġsequ ences
Ġrelationship s
6 8
Ġconsum ers
Ġpart ition
Ġmost ly
Ġname ly
Ġwar ning
Ġred irect
Ġvari ant
om b
ove mber
B C
Ġexecut ing
Ġuna uthorized
ĠG erm
ĠM S
Ġp seud
Ġt alk
ĠApp endix
es ides
E x
Ġresil ience
it ative
Ġscore s
al id
ines e
ww w
Ġincor rect
A d
s es
Ġaccess ible
br uary
Ġbud get
Ġg iving
Ġt act
Ġreli able
Ġcr ime
Ġrob ot
omet ric
d ata
% ,
Ġexp and
g n
ĠMach ine
Ġweak ness
sc ale
Ġinn ov
ĠB ay
ĠP ower
Ġimp ossible
Ġf ool
Ġded icated
Ġissu ed
Ġt al
ĠA b
Ġexist ence
Ġinstall ation
Ġminim ize
Ġb in
Ġb ur
Ġexp osed
ĠOffic e
Ġprot ot
ĠCent er
E L
Ġh om
Ġet h
s ource
Ġdisc overy
Ġ2 3
Ġprofession als
ĠS te
Ġ il
ar b
Ġthe ft
ma zon
7 7
a a
out h
p at
ĠH ack
ĠE qu
Ġdeli very
AC K
m on
ĠM y
Ġnecess arily
Ġnetwork ing
ĠN ovember
Ġinter faces
il tr
per ature
IN G
F igure
um b
ĠW orld
Ġcom ing
ĠC A
ĠV er
Ġlaw s
Ġinter medi
Ġf ill
ĠM e
Ġpol itical
aw n
as pers
Ġvol t
ter m
ol low
im al
over n
Ġwor st
Ġlook s
Ġhapp ens
Ġgrow th
Ġext end
aspers ky
ĠV ir
Ġpre fer
Ġpair s
Ġsuggest s
Ġgener ic
Ġwe ights
ĠSm art
Ġent er
M A
Ġtur ned
Ġcamer a
Ġh uge
T L
Ġvalu able
Ġe p
ĠCy bersecurity
re c
Ġch ance
M D
ĠCh inese
Ġconc l
Ġtra vel
Ġinter val
ĠE lect
Ġre ducing
a ight
fere d
b il
ĠU ser
un t
Ġdistribut ions
ĠSec ure
Ġbu y
Ġcy cle
pos ition
Ġsuggest ed
Ġincor por
ĠC lass
oc ial
is hes
F F
Ġs aw
Ġautonom ous
it iz
m ap
Ġimprove ment
Ġst ation
per form
ĠB o
ĠAn alysis
Ġf av
id s
ĠD r
Ġs ections
Ġ200 7
Ġsitu ations
Ġadministr ator
Ġac celer
ĠSt ate
Ġfundam ental
g y
ĠW ar
Ġcalc ulated
Ġpercent age
ĠCon f
ur y
ĠDef ense
line ar
Ġ2 2
ing ly
ĠG PU
Ġminim al
Ġpl ant
Ġ6 0
Ġal le
et er
N I
Ġenc our
Ġsc reens
Ġsam pling
Ġreal istic
ĠA mazon
Ġev olution
Ġconsequ ences
ĠU K
Ġimplement ing
he l
Ġ er
op s
Ġconfigur ations
Ġm en
AD A
Ġnum erous
Ġreport ing
Ġexploit ation
ĠT LS
Ġaud io
Ġatt ract
Ġfri ends
Ġmembers hip
Ġaddress ed
Ġtop ology
Ġmag n
Ġincreasing ly
av ig
Ġro ad
os p
Ġide al
g ue
ur ation
Ġdefin itions
Ġcalc ulate
Ġint u
' ,
Ġdec ide
ĠFe bruary
ie f
Ġexp on
Ġcapture d
Ġdis rupt
Ġaud it
Ġhum ans
Ġatt ach
ĠC O
Ġsur pr
Ġexp ensive
Ġinter view
T r
Ġinter cept
ĠS ch
Ġspe ak
Ġstr aight
Ġfirm ware
Ġcrit eria
Ġdec ided
Ġthous ands
ĠAttack s
Ġconf irm
Ġappro xim
Ġapplic able
Ġby te
6 9
Ġpl ans
Ġhe ld
Ġch arg
Ġa ge
Ġcomp lic
Ġex erc
7 8
Ġdef ines
6 5
Ġprec ision
ĠJ ust
Ġlabel ed
Ġscript s
Ġtop ic
Ġimpl ies
Ġmiss ion
Ġtr ick
ĠN orth
aus s
ĠC he
du c
G P
ĠG e
Ġstr ings
ĠC r
S C
Ġpredict ions
Ġlook ed
Ġch apter
Ġhand ling
Ġeduc ation
Ġexp os
Ġrout e
istr ation
Ġgrow ing
ve re
ĠD R
r um
Ġof fered
Ġide as
Ġcl ust
m l
Ġsub sc
Ġint ent
Ġlink ed
ĠU AV
Ġdo or
le y
Ġprotect ing
ic y
h ost
Ġinf ection
Ġs izes
Ġsoc i
Ġk ill
Ġpo or
Ġm aster
ĠC ode
ĠDet ection
AB LE
Ġil leg
om ial
Ġcriminal s
Ġim m
Ġload ed
Ġdou ble
Ġstr ict
Ġw in
ĠR SA
Ġobject ives
Ġre duces
Ġtem perature
Ġcampaign s
Ġdriv ing
Ġd iv
us ions
Ġover flow
ĠD at
ĠF ore
Ġsurve illance
Ġauthor ization
Ġdesk top
Ġconfidential ity
Ġin stru
ĠIn stitute
âĢ ¦
Ġpart ial
ex p
Ġexploit ing
Ġens ures
Ġcountermeas ures
Ġst ay
Ġp apers
ph as
a pping
Ġprivile ge
Ġanal ys
it ation
Ġn et
Ġmom ent
Ġqu al
ĠPa ul
Ġind irect
Ġkey word
Ġreason able
ec ure
ĠEngine ering
ens or
Ġnum er
a u
ĠNetwork s
Ġcryptograph y
Ġun iform
Ġlead ers
Ġfail ures
l s
if ferent
iminal s
Ġbut ton
ĠC D
ec ut
Ġtheore tical
Ġcompil er
Ġun tr
Ġprinci ples
Ġtem pl
Ġfr ag
Ġapprox imately
Ġprof iles
Ġro les
am ing
z e
Ġiter ation
4 4
Ġprinci ple
Ġpa id
ub e
ĠBe fore
Ġintr ud
Ġrout ers
Ġre ward
ĠA nt
et ary
Ġclaim s
Ġc ity
ĠY ork
Ġste alth
Ġbo ard
ic ks
S N
j ection
Ġreg ions
Ġsub stant
Ġretur ned
Ġconnect ivity
ag er
Ġden ote
are n
Ġact u
ĠI R
ĠP GD
Ġh ij
Ġplay er
Ġpict ure
Ġutil ize
Ġj oint
ĠEn c
ĠA ust
ĠSS L
ĠInt elligence
Ġover view
Ġpenet ration
Ġmiss ing
L P
Ġtransmit ted
ĠS n
ĠT ime
Ġ2 6
Ġmathe mat
Ġext ent
T R
um ber
i pped
Ġinter rupt
Ġactiv ation
Ġcaus ing
Ġevery one
Ġfin ally
Ġwant ed
Ġm ist
Ġcomp at
Ġse ed
Ġsimultane ously
Ġauthor ity
om s
Ġl ate
Ġrecord ed
Ġcr uc
ĠS ign
ellig ent
ĠA c
Ġ id
Ġ2 8
al i
Ġdesc ript
oc ation
Ġprincip al
Ġiter ations
Ġj ud
Ġen for
Ġfocus es
Ġpart ners
Ġefficient ly
ens us
ĠT arget
Ġw ent
Ġprom pt
Ġn ation
Ġind epend
Ġden ial
in ations
ĠA V
Ġ2 7
ĠRuss ian
Ġdisc r
Ġal one
Ġb ill
ash ing
E s
Ġforens ic
Ġdef ensive
f ile
Ġopportun ity
Ġsubsequ ent
ĠJoh n
k it
C h
Ġcandid ate
gr ade
Ġf ederal
Ġa ug
Ġl apt
st ep
Ġex hib
Ġbroad cast
Ġfail ed
Ġargu ments
Ġb ul
Ġmulti pl
Ġvolt age
Ġins urance
os ystem
Ġan g
Ġpredict ed
Ġhttp s
ĠC C
Ġmod ification
el low
ĠUn fortunately
anc ing
Ġh ar
Ġrequ iring
Ġexam ine
Ġadapt ive
Ġformul a
Ġpos itives
Ġver ified
Ġautom atic
Ġaler ts
Ġsymbol ic
in istic
Ġw ants
om pl
ĠEx per
Ġelect ric
Ġcall ing
ĠF ound
Ġrepl aced
b ody
f ox
Ġmis class
Ġinterp re
Ġ9 0
r ical
eli hood
Ġstat ements
m ax
S ection
res h
ch annel
Ġreput ation
ĠAPI s
Ġdivid ed
d ate
O L
Ġm iddle
uct ion
Ġoff line
Ġautom ation
Ġdisc rete
pl ace
Ġterm inal
ve red
ck now
ograph ic
4 5
Ġprim arily
h ot
Ġi OS
auss ian
ĠLi ke
Ġre ached
Ġrepresent ing
ic ed
Ġ ur
Ġt ables
Ġkeep ing
I ON
The re
Ġrep os
D I
Ġext ensions
f it
ĠC re
Ġaccept ed
Ġh ol
ĠS G
ĠProt ection
ĠE very
Ġco vert
Ġh or
Ġachie ves
ĠF in
Ġsu c
g ence
ro te
Ġrepl ace
Ġent ropy
Ġtrans p
og ene
Ġcorrespond s
D A
Ġh ide
Ġread er
lo ts
or ph
f l
Ġimpro ving
Ġmarket ing
ĠM ed
ess ions
Ġflaw s
Ġdifferent ial
Ġprofession al
Ġr aw
Ġacc ompl
c ase
Ġcruc ial
Ġd omin
ĠT wo
Ġappl ies
for ward
ĠB u
Ġvis ible
Ġst ake
d s
ch astic
abil istic
Ġr are
Ġg ap
Ġincom ing
Ġpropag ation
Ġind eed
Ġsp at
Ġbound s
Ġenc oding
ĠOr gan
Ġdisclo sure
Ġextr action
Ġco vered
ĠSer vices
cept ible
Ġm aps
Ġun less
U s
Ġf a
Ġdownload ed
Ġar riv
Ġmove ment
Ġc at
pervis or
Ġseg ment
st ream
ograph y
Ġident ical
Ġtempor al
ĠThe ir
ĠSy bil
ĠM em
Ġrel ay
Ġsuc ceed
ĠF BI
3 6
ib ri
Ġdecre ase
ĠM obile
Ġpol ice
Ġ200 6
us ing
ion ed
rom e
Ġne ur
Ġt it
Ġrec all
Ġregist ers
Ġme ant
Ġout l
lo ok
Ġinit ially
Ġadv ance
ĠSt ud
Ġsa ve
ĠH y
iv irus
ĠD LL
Ġem phas
Ġconv olution
T D
Ġ ]
Ġdes pite
Ġbound ary
Ġessential ly
Ġs av
un k
Ġsatisf y
Ġtop ics
Ġfeas ible
Ġtri ed
Ġadvert is
Ġsol ving
Ġuncertain ty
ili ar
} }
Ġg ad
Ġda ily
3 1
j ected
Ġpack ages
Ġhealth care
Ġdepend ent
if e
Ġclust ers
Ġpe er
ple te
Ġ +
Ġprocess ors
Ġv s
7 2
om ic
Ġaccess ing
ugh t
Ġw at
Ġrestrict ed
Ġh ot
il ibri
F S
on ly
Ġexch ang
Ġbecom ing
r ate
Ġf ails
Ġin herent
Ġd ial
Ġcommun ities
Ġw rote
Ġj am
d riv
ĠS ever
ĠP res
Ġn avig
Ġtrans l
n omial
ĠH igh
Ġillustr ate
in st
ĠT ABLE
Ġst ri
ĠH is
Ġw atch
Ġbench mark
re st
Ġn one
l ish
Ġrecogn ize
Ġsc r
ĠP H
ĠR ober
Ġen abling
Ġf oot
ient ed
ĠDig ital
Ġclass ify
Ġp lot
Ġadvert ising
Ġopen ed
A G
8 9
Ġp ul
k ens
Ġintermedi ate
Ġvide os
Ġnorm ally
Ġw orm
t ies
Ġt ries
Ġaccess es
Ġencl ave
ac c
in y
Ġsh ut
Ġadj ust
ĠGener al
an n
s on
Ġst able
Ġtr uth
Ġexpress ion
ro s
ĠM I
Ġprov en
us ive
Ġh one
i ant
Ġse arc
par amet
Ġadd s
ill a
Ġp p
as c
H z
l ab
Ġfor um
re p
ĠP at
Ġto kens
Ġke pt
Ġinvol ving
ĠA ES
it ory
ĠBay es
ĠS Y
Ġext ensive
Ġbot s
us er
Ġinvestig ated
Ġvalid ate
Ġinter v
ĠI S
Ġevalu ating
ĠA ND
Ġprior ity
Ġembedd ing
Ġac ad
po ints
ĠM at
Ġ200 0
op h
Ġsum mary
ind ing
ĠP DF
pro t
Ġsay ing
ĠMal ware
er v
Ġbott om
Ġc itiz
Ġcomp r
Ġexpress ed
* *
ĠG overn
ib ilities
ĠC T
Ġfr action
ten ance
Ġproof s
Ġstrong er
le ase
ĠF GSM
Ġcop ies
Ġtre es
s y
d ro
ĠS ol
ĠUS B
Ġdis s
Ġclus tering
T o
Ġmed ium
Ġlim its
Ġinv ari
Ġpl aces
Ġun p
Ġas ym
r or
Ġg as
ĠREF REF
Ġbank ing
Ġm ac
Ġreal ity
Ġt ick
ĠP LC
Ġph ones
Ġdec ryption
ĠDe velop
A pp
ĠS ocial
Ġsequ ential
F T
ĠR ob
Ġconcer ned
Ġprotot ype
ph ones
p y
g ets
Ġregard less
st ate
7 6
Ġprocess ed
ort ed
Ġspecific ations
Ġmanufact uring
Ġanaly tics
7 3
lic k
ĠD en
com p
Ġlay out
Ġconstruct ed
C B
Ġconc rete
n ets
ĠN on
Ġper ce
Ġcare fully
Ġfil ters
Ġsh ift
Ġm ov
Ġdec ent
Ġper haps
ĠFire fox
Ġcr ack
Ġperson nel
Ġoccur red
ĠRes p
it ivity
Ġ ;
ĠB lock
Ġpoly nomial
8 1
Ġass et
ĠF ollow
H ow
ĠDes pite
on al
ne y
I f
Ġv ision
Ġguid elines
Ġ \
Ġprob abilities
est amp
ad es
ĠB usiness
am b
in ite
Ġind u
process ing
ĠG aussian
v ision
Ġlik elihood
Ġsmart phone
Ġdocument ation
Ġbal ance
Ġconv entional
Ġens uring
Ġdang erous
ser vice
ĠC W
Ġred und
ĠInd ust
ce ll
ash ion
Ġempir ical
Ġens emble
Ġhe ur
Ġqu e
ĠM UD
ĠP ublic
Ġexpl an
g ener
U T
Ġb atch
ĠT yp
Ġm as
Ġins ider
Ġdiver se
Ġremote ly
ĠS w
ĠI SP
Ġfr ames
m p
Ġthere by
Ġhard er
Ġgovern ments
in ition
ur p
Ġclaim ed
Ġa x
f r
iz on
ul ates
Ġutil ized
Ġframework s
ĠB esides
Ġado ption
Ġread y
Ġp ush
re r
hold ers
Ġaut o
ĠW ord
Ġport ion
L R
Ġpix el
ĠMet hod
sequ ently
Ġequ ilibri
Ġspe ech
ĠN SA
tr ans
ĠC P
Ġfacilit ate
ic ts
ad a
Ġcon ference
ĠA ir
Ġpost s
Ġre ven
Ġcomp aring
Ġcomple ted
Ġs essions
Ġc a
Ġex ceed
wr ite
Ġb atter
ĠM ess
ĠR andom
Ġadvant ages
t ered
R e
Ġadministr ators
Ġr an
ol ute
Ġcon ven
ĠC isco
ig u
Ġdynam ically
Ġauthor ities
Ġi Ph
ĠI BM
ot ion
B S
Ġsubject s
Ġprob abilistic
Ġtheore m
Ġalloc ation
Ġclose ly
D R
Ġfil m
n o
0 4
Ġto ler
Ġshell code
Ġcons ensus
A l
pr int
ĠA lex
ĠCal if
Ġartic les
Ġcentral ized
ĠD C
Ġun able
_ {
Ġde pth
r is
O n
Ġcomp osed
ĠFl ash
Ġchild ren
Ġsto chastic
ĠK aspersky
Ġexpos ure
ĠF ile
ĠU se
Ġloss es
Ġdiscr imin
U C
Ġam pl
Ġfri end
Ġrep ro
ad ata
Ġcompos ition
Ġrem ember
10 7
Ġprop ortion
Ġan not
W h
he ll
ul ative
ĠY our
ch ange
Ġar tificial
Ġuser name
i os
Ġsp ot
Ġm er
Ġreg ression
O W
ĠZ h
Ġvary ing
Ġillustr ated
Ġreview s
ĠMult i
Ġanal og
Ġsh ares
Ġst ability
av y
Ġar r
Ġhist or
Ġcy c
Ġinte ger
Ġstr uct
Ġanonym ous
Ġco gn
Ġrespons ibility
Ġthink ing
Ġst ages
Ġregist ered
it ored
Ġoff set
L A
Ġmanip ulate
Ġmaintain ing
Ġmagn itude
Ġres olution
ĠP ost
Ġcon ve
Ġpro ceed
ot al
Ġbr id
ach ing
ĠD N
Ġto ward
Ġpro duces
ĠURL s
Ġ9 9
Ġbr and
ĠP ass
Ġcou ple
Ġpre m
ĠE l
ĠSC ADA
Ġagre ement
Ġbr ute
Ġneighb or
Ġpat ient
Ġinstit utions
ur n
ĠRober t
Ġdifficult y
ĠEn ter
Ġfew er
Ġspect rum
i ans
Ġ }
Ġlic ense
he tic
norm al
Ġclass ical
Ġfore ign
Ġch ip
Ġentire ly
Ġauthor ized
ĠD av
ĠR el
Ġel ection
ĠUn like
Ġa cknow
Ġder ive
d omain
Ġuntr usted
Ġremo ving
ĠE r
H T
Ġprev ention
Ġplain text
Ġg ave
h ol
Ġterr or
Ġpre fix
ri ve
Ġident ifies
ĠA v
ĠG PS
3 9
Ġhand s
Ġdesign ing
Ġout come
Ġt el
Ġh ope
Ġcol le
Ġsupport ing
Ġsp y
iv il
ĠT R
Ġdepend encies
Ġindic ated
Ġdenot es
Ġhundred s
iction ary
Ġimpl icit
G A
Ġlog ging
ĠPro ject
Ġout perform
uc lear
Ġst yle
e y
ĠB rit
ress ed
Ġd im
Ġconclud e
ĠSever al
ĠC oun
com put
ĠV I
Ġmill ions
Ġinterest s
ot ed
um an
Ġd u
ĠVir tual
Ġequ ation
Ġp an
ment ioned
Ġcell s
Ġmathemat ical
r an
ĠE U
Ġbl ue
imension al
Ġun re
ĠApp lication
Ġm s
ot t
Ġmain tenance
Ġident ifier
Ġintro duces
h t
Ġwe ap
Ġgrad ients
Ġconfir med
Ġo l
Ġr ating
Ġop in
f e
Ġd uration
Ġph ases
orn ia
K E
reed om
Ġestim ates
Ġconsider ation
Ġex cl
ens itive
l a
ĠB as
Ġ5 00
on n
Ġorgan ized
8 7
Ġt ro
Ġstrateg ic
Ġrepl ay
Ġde ad
Ġper m
ĠP awn
ĠImage Net
der ing
the re
Ġcomplic ated
Ġrequest ed
Ġregist ry
Ġle aving
Ġ ),
Ġmass ive
Ġimp acts
ĠT ype
Ġsynt ax
Ġsens ing
Ġreason ing
Ġwhen ever
b u
Ġag o
ĠAut om
Ġinf ect
Ġbound ed
b l
the less
ĠIP v
in i
Ġbi as
p age
po ch
Ġsupp osed
Ġfav or
ĠV ol
T E
ĠM IT
Ġrecommend ations
e fficient
ive red
Ġse vere
Ġp hen
h ttp
d ll
am ple
Ġtrans lation
Ġcult ure
Ġtag s
b and
ĠCalif ornia
Ġcrypt oc
Ġcheck ed
Ġgu ide
en ed
Ġmod ifications
ĠEurop e
sp ace
Ġfam iliar
Ġtrigg ered
ĠEng lish
Ġcopy right
Ġmanag ing
Ġ2 9
Ġcontribut ions
call ed
rough t
tr ained
ĠAust ral
tt y
ĠFr ame
ĠTr ust
mar ks
Ġcontrol lers
Ġde aling
Ġant ivirus
D S
ĠCh rome
Ġlarge ly
re es
ict ed
ĠU sers
ion age
Ġact or
5 1
et ic
Ġimprove ments
l ayer
Ġe ight
t est
am a
Ġint ention
Ġthrough put
s ite
h and
Ġro t
Ġilleg al
ĠA p
itive ly
ĠX ML
oc al
Ġmodel ed
Ġdev iation
Ġstud ent
Ġprov ed
i et
Ġdeterm ining
Ġsym metric
Ġresearc her
ifi able
ĠK ore
Ġprevent ing
Ġswit ches
Ġrespect ive
Ġkn ew
__ __
Ġtim estamp
Ġreg ulations
G AN
Ġ200 5
Ġpix els
Ġcraft ed
Ġdisplay ed
Ġsol d
Ġe ar
] ,
ul us
Ġcom ments
Ġcontin ues
ber g
ĠIn te
Ġrem ov
ĠG AN
Ġhost ing
Ġag ency
Ġdetect ors
ĠExam ple
Ġis n
y ear
am per
Ġcert ification
i pl
ST M
ĠO R
Ġass embly
Ġint elligent
Ġdif fer
Ġorig inally
ĠL a
Ġt ab
Ġon going
Ġh ouse
Ġdele te
Ġabs olute
wh ile
Ġhypot hesis
Ġim ag
Ġcorrect ness
Ġw alk
Ġpar ad
Ġ200 3
ĠS ur
Ġcour t
F A
i ated
ĠS outh
ĠDes ign
Ġinv alid
riv ial
Ġam ounts
Ġindepend ently
ĠC EO
Ġpiec es
on ent
ĠC ar
Ġsh adow
Ġmo ved
Ġpost ed
Ġspat ial
Ġdel ivered
Ġ7 0
ĠF ederal
ĠR isk
P M
te e
R I
ĠL o
g ers
Ġdefin ing
Ġr ise
Ġsim ulated
Ġenc oded
Ġf ood
ĠP ay
ĠFollow ing
Ġsp end
Ġopportun ities
Ġe poch
ĠT op
Ġh op
ur ally
Ġcybercr iminals
ĠRuss ia
Ġmanip ulation
Ġp ure
Ġmet adata
Ġview s
he red
Ġact s
Ġprev ents
Ġanonym ity
Ġd iversity
Ġaccur ately
Ġmot ion
Ġdri vers
ĠRes Net
ĠInd eed
Ġcomb ine
Ġe aves
Ġpass ive
Ġcorre l
Ġintrud er
Ġphot os
ĠR T
Ġins ecure
ĠIn it
Ġindic ating
ĠB lu
Ġim per
D D
Ġinfrastr uctures
Ġexpert ise
Ġmin or
ĠO F
Ġmanufacturer s
e ffect
Ġpress ure
Ġpen al
Ġapp arent
Ġyour self
Ġappe ared
Ġswit ching
Ġreg ul
C E
Ġcr ash
Ġdirect ions
ig m
d et
t arget
Ġcur ve
" )
val ue
Ġfol der
Ġinvest ment
Ġphen omen
un ch
ĠTh rough
Ġdirect ed
Ġre tain
Ġrestrict ions
Ġol der
Ġe ye
Ġp arent
Ġfirewall s
Ġb rought
IN T
or ation
Ġconsid ers
Ġmon itored
is ition
Ġblock ed
et ooth
ER T
Ġanalyst s
Ġprior it
Ġbelie f
Ġsp ent
S h
ur b
ral ized
Ġacqu ired
Ġdest ro
ĠSS H
ant ec
Ġinc ent
def ined
Ġconflic t
Ġdele g
Ġload s
Ġsu ff
ĠD ifferent
v ari
d es
ĠL em
Ġcollabor ation
S ec
Ġad equ
Ġdesign s
ĠiPh one
c il
Ġne ither
Ġ @
inc luding
ĠS E
Ġinj ected
Ġm id
ĠAmeric a
ap an
Ġisol ation
Ġfor ces
Ġcar s
o ke
Ġsh ape
0 5
ef ined
Ġprecise ly
Ġinv ok
ID S
Ġconsist ing
Ġcook ies
ĠExam ples
Ġcontinu ed
so le
ĠDef inition
Ġa irc
Ġfac ilities
Ġre ferences
st ation
Ġm and
ro g
ĠL ast
ic on
ĠAr ch
V D
Ġor acle
Ġins ight
ĠRep ort
d r
Ġemerg ing
wh at
Ġm us
Ġmon itors
Ġder iv
Ġwa it
Ġdiag ram
Ġdro pped
Ġhe ter
and box
Ġocc urre
Ġwor se
Ġwee ks
Ġso ft
Ġhim self
Ġmaintain ed
ĠPl ay
] .
Ġblock ing
Ġintro duction
Ġbatter y
M M
x x
Ġknow ing
Ġmod es
y es
d f
ĠV ari
Ġdim ensions
Ġdid n
Ġref l
s ystem
il ies
Ġad s
Ġes p
Ġcompil ed
V ID
ĠAut hent
Ġweakness es
E G
ĠTo ol
Ġexpon ential
Ġopen ing
ĠVulner ability
stit ution
ro ok
ĠV is
3 7
w rit
Ġy oun
Ġn ative
Ġdeterm inistic
Ġvari ation
Ġobfusc ation
Ġsal es
il ing
Ġd oll
9 8
Ġins ights
or iented
ĠM a
Ġm ount
Ġnew ly
Ġsoc k
el ess
Ġdepend ency
Ġab use
Ġrecomm ended
ĠC AN
ĠU SA
we ight
Ġun su
C R
ĠS N
Ġequilibri um
Ġse ven
Ġconnect ing
Ġsearch ing
Ġm ask
Ġhack ed
Ġleak ed
Ġschedul ing
Ġpart ially
Ġar gue
Ġcho osing
Ġro ugh
ĠF ree
Ġpre tty
Ġ |
ĠC rit
Ġorganization al
en ior
Ġz one
Ġdece ption
ĠC le
Ġeng ines
et c
n d
Ġd ark
Ġas king
ĠComm and
Ġsever ity
Ġflex ible
Ġd ictionary
p ath
ĠDe b
ĠEx t
Ġal arm
Ġhost ed
ĠS an
ĠC urrent
ĠCommun ications
Ġdis pl
Ġsim ulations
Ġlet ter
Ġident ities
Ġfuzz ing
ĠR AM
Ġwork flow
Ġviol ation
Ġ1 000
ir th
Ġunivers al
Ġde grad
ĠCon n
Ġforens ics
Ġban ks
Ġ3 5
d imensional
Ġd ump
ount y
Ġsc ans
Ġman if
Ġillustr ates
ĠCons ider
Ġconc ent
Ġmat ches
ĠRe qu
Ġhappen ed
d om
Ġm ere
ĠCh ar
Ġanomal ies
Ġapprox imate
I L
Ġimpro ves
ĠG N
Ġdemonstr ates
Ġexecut es
et ch
Ġexerc ise
Ġrout ine
inf o
art h
Ġw omen
4 6
ĠR o
ĠM ean
Ġsoci ety
Ġvari ance
Ġs il
R F
ĠFrame work
ogene ous
N s
ĠL ink
Ġcontain er
Ġoff ering
driv en
Ġcont ribution
ock er
ĠS k
Ġch arge
Ġtrend s
ĠJ ournal
b al
A E
ĠN ever
Ġv ast
Ġh osp
Ġinv ent
Ġgu ard
Ġsens itivity
Ġc oding
ob e
Ġretrie ve
Ġret ail
Ġtrigg ers
Ġinc l
Ġpat ched
Ġult imately
Ġcond itional
Ġal ter
ĠI ts
Ġcons ult
Ġre in
Ġf resh
ell ing
stand ing
ĠOn ly
Ġdetect s
ĠS pect
Ġbin aries
Ġs an
ak ers
sy ch
ĠBlu etooth
Ġover come
Ġcontinu ously
Ġlapt op
ĠSym antec
Ġvari ations
Ġprep ared
N ET
Ġcomp l
pt y
Ġm ar
ĠC V
Ġex it
w orth
f are
Ġfam ilies
Ġcertain ly
Ġdeterm ines
ĠE ve
How ever
Ġcrit ic
ĠJ apan
ĠT HE
ĠAd min
Ġinter active
ar se
Ġto uch
ĠS VM
ser ver
o pt
D B
Ġrepresent ative
Ġstraight forward
Ġauthent ic
Ġmaxim ize
ĠAss oci
Ġansw ers
Ġbrief ly
Ġsecre ts
Ġcrypt o
ĠComm on
Ġaggreg ation
Ġgate way
e le
Ġaccept able
Ġw ild
Ġpubl ication
ĠTh ings
ĠM ag
Ġmanag ers
Ġsub red
por ation
Ġprop ri
Ġinter ference
Ġcitiz ens
im ent
Ġact ively
Ġmeet ing
C H
iz er
ĠP ort
9 5
Ġcom ment
angu age
ĠPol icy
a ware
Ġwork ers
Ġfind s
Ġread ers
Ġbro ken
3 8
conn ected
c ons
ĠAn aly
Ġm ob
Ġm ig
T PS
ĠN umber
Ġsatisf ies
Ġimp erson
Ġrecogn ized
Ġreal ized
Ġhelp ful
Ġmark ed
h ole
Ġform ally
a per
Ġview ed
Ġmaterial s
i ke
book s
ĠGovern ment
Ġsh if
Ġsecond ary
Ġg ained
7 1
Ġabstr action
com es
sc ape
f rom
Ġser ves
Ġa fore
Ġm arg
Ġj ournal
ĠP ack
Ġfocus ing
ate ver
B A
Ġcollect ing
c ore
Ġdef e
Ġassum es
ĠD epend
Ġacc ident
op y
onym ous
Ġstake holders
Ġneighb ors
Ġrapid ly
Ġforward ing
Ġgreat ly
S I
Ġp us
201 7
ĠChe ck
Ġpos itions
Ġdenot ed
Ġvis it
ĠR et
ĠM ar
AT ION
Ġres id
Ġmet a
Ġbig gest
Ġsupp l
16 8
Ġairc raft
tr act
Ġlimit ation
Ġ3 1
Ġrepresent ations
ĠE st
ec k
Ġposs ess
Ġauthent icated
Ġdriv es
ĠNe ural
ĠFound ation
Ġround s
ĠExplo rer
Ġaffect s
Ġprivile ged
Ġselect ing
ĠS ource
ĠT V
5 6
Ġexam ined
du le
ĠR E
ĠCom par
up s
Ġev asion
4 3
Ġed itor
Ġcomb inations
ac cess
b s
Ġlog ged
ĠAm ong
Ġtra ject
ĠB i
C A
Ġkey board
force ment
Ġgu est
Ġatt ached
Ġn ar
ĠCon sequently
Ġ200 4
form ance
Ġcho ices
Ġlead er
Ġintro ducing
qu e
Ġtransfer ability
Ġf ashion
ĠStand ard
ecut ive
Ġcogn itive
Ġ12 8
ĠIn tr
ĠC ore
Ġma x
Ġresult ed
Ġsee k
ĠLem ma
ĠS af
ĠSG X
Ġso le
ĠS MS
ĠP i
Ġtest bed
ĠSD N
Ġassign ment
i ations
Ġconsequ ence
Ġalle ged
un ct
Ġscreens hot
Ġafore mentioned
Ġmix ed
Ġacqu ire
ĠSt art
Ġabs ence
Ġimpl ications
Ġcyc les
Ġgrant ed
Ġs ys
Ġcircu its
Ġcipher text
4 2
Ġsatisf ied
Ġh ook
b in
Ġcontrol ling
Ġpresent ation
ĠTe am
Ġalloc ated
Ġs yn
net ic
Ġachie ving
Ġrecip ient
Ġloc ally
Ġmeas uring
Ġreal ize
Ġpurch ase
Ġdep artment
Ġtact ics
Ġint ers
Ġelimin ate
Ġtransfer red
ĠHe alth
Ġcomb ining
ĠTr aining
Ġwill ing
Ġc ash
Ġiter ative
ĠP IN
ir able
ĠB row
Ġdou b
Ġart if
ĠP M
ĠI SO
5 3
Ġcamer as
Ġstructure d
re et
Ġrem ed
ĠAT T
Ġbr ain
L e
Ġem pty
u k
Ġrepos itory
8 2
Ġreve als
Ġn uclear
ies t
Ġma pped
Ġpropri etary
Ġperce ived
ĠH ome
anc hes
S er
l ink
6 7
u el
Ġnumer ical
f ill
Ġphys ically
re w
fere n
Ġst ress
em on
ĠLe vel
G G
Ġdele ted
Ġexplo red
G B
Ġg l
a it
onom y
Ġ ).
Ġemerg ency
att le
Ġregular ly
avi ly
ĠN ame
Ġex ha
Ġthread s
st er
ĠAg ain
ĠInte gr
Ġn ull
Ġsign ing
es ter
Ġde ath
Ġ( "
Ġhe avily
Ġocc up
Ġneur ons
Ġconstant ly
Ġdis able
Ġch at
Ġmeaning ful
Ġdel ays
ĠA f
Ġs ectors
vers ion
Ġsat ell
Ġmod ifying
Ġconver gence
r ist
ĠE there
ĠM ich
Ġag ree
Ġimmedi ate
Ġstor ing
Ġaddress ing
ĠF P
Ġbehavior al
Ġsufficient ly
Ġec osystem
Ġvot ing
ĠS I
Ġcapt ures
Ġ9 5
Ġcompet ition
ĠK ing
Ġdecre ases
Ġdescrib ing
plo it
Ġassum ing
L U
ĠUn ion
ĠW here
Ġclo ser
4 9
Ġam b
Ġsynt hetic
Ġconvolution al
ĠM D
Ġd ensity
p read
Ġsol ved
ĠWith out
ĠU DP
Ġguid ance
Ġcolum ns
Ġreven ue
Ġpass ing
Ġpro hib
Ġc ivil
Ġcandid ates
ĠPres ident
Ġexperi enced
ĠCom mission
Ġcon j
Ġplan e
lud e
Ġacad emic
Ġun n
ĠS W
O ST
Ġtal king
Ġinterpret ation
Ġen umer
le ep
ĠU s
ough t
Ġt ech
Ġbrow sing
ides pread
ĠTh ird
Ġseem ed
ĠPro v
ĠEthere um
Ġanalys es
ĠT im
Ġsur round
c er
Ġsim ulate
Ġdest r
ĠB ig
Ġconsist ency
ĠRF C
ĠM ax
ĠSt at
ĠS el
Ġr ig
Ġre act
G u
Ġa part
t ype
) -
Ġhand led
r c
Ġfair ly
Ġim ple
Ġscient ific
ĠE ther
um ing
ist ry
ĠDNN s
Ġtransform ations
Ġoptim ize
Ġsem i
Ġbr anches
ĠB en
Ġspec ifies
Ġprom ising
Ġspec ies
Ġcons ent
ĠOb ject
igur ation
4 1
Ġesc al
Ġdig it
ĠH ard
Ġhighlight ed
Ġvers us
Ġindust ries
Ġapproxim ation
Ġcircum st
ĠD H
Ġa head
Ġresil ient
ĠResp onse
ĠA re
Ġindic ators
ag ram
st e
Ġconc urrent
ĠAd obe
Ġhe ap
ĠNew s
le ment
f iltr
Ġw ish
Ġmotiv ation
A tt
Ġpre ced
Ġleg is
Ġign ore
Ġaim ed
F L
n y
Ġf elt
Ġsmart phones
i lo
Ġreg istration
Ġse x
Ġw indows
Ġvirus es
Ġsecre cy
tt ers
ĠG DP
Ġar rest
ĠP age
Ġ 00
Ġg lob
ak er
Ġl ives
Ġlab or
ux net
all s
ĠD P
Ġt amper
Ġdu pl
ĠIn vest
Ġorgan is
d ependent
ĠP E
c ription
Ġflex ibility
ĠL ine
ĠComput ing
Ġimple ments
Ġworld wide
Ġstealth y
Ġacqu isition
Ġfa ults
Ġf reedom
Ġnot es
in o
is c
i us
rypt ed
ĠG et
ĠK ali
Ġmark ets
Ġsche dule
st ood
ens ors
Ġwa iting
Ġexecut ive
ĠID s
Ġs andbox
Ġcontribut e
Ġupd ating
i pp
ar ter
h am
z er
Ġus ability
ĠBayes ian
p riv
Ġintegr ate
Ġsus pect
ak ed
Ġw idespread
Ġdiag n
ic a
ole an
Ġent ered
ĠNever theless
ĠW ill
ĠRe ad
Ġengine ers
Ġpers istent
Ġenterpr ises
E X
Ġnot iced
Ġpip eline
b ar
ir ms
Ġcomp ression
li ers
Ġw ave
sh op
Ġcap ital
Ġdocument ed
ĠD L
Ġsus ceptible
ĠEx p
Ġtempl ate
lic ations
Ġsh o
Ġfrequ ent
Ġexplan ation
bers pace
ĠPro f
ĠE vent
P T
Ġser ial
Ġeaves dro
l ines
ĠAg ency
201 8
ĠV al
Ġfor ced
Ġp ow
ĠK n
ot ing
ĠBrit ish
out put
Ġesp ionage
s k
ĠGo od
Ġsp aces
Ġt u
U n
Ġstrong ly
Ġspecial ized
Ġal ign
ĠHT TPS
ĠAdv anced
Ġadministr ative
ant ed
a o
Ġpoint ed
Ġout comes
om an
Ġrepl acement
Ġun us
ell ect
Ġsee ing
Ġsynchron ization
Ġst uff
ĠB ar
ĠC our
Ġsent ence
ĠAC M
Ġtur ns
Ġco vers
iss ance
or ough
Ġsur v
b ut
ĠEnter pr
a el
Ġtwe ets
Ġins pect
E n
Ġmotiv ated
Ġopp osed
Ġs ust
Ġcomple ment
lab el
Ġpat ients
ĠK now
P L
ĠMark ov
Ġequ ations
iss ion
do or
ĠIn s
Ġscal ability
ĠC ong
Ġperturb ed
b lock
Ġsafe gu
Ġoper ates
Ġjo in
Ġinterv als
Ġl as
Ġste aling
ĠPH P
ĠRed dit
Ġrandom ized
Ġsepar ately
ĠL aw
is her
Ġsim ulator
ak s
omm un
6 3
ĠS A
ĠC hen
ĠS EC
Ġlever aging
Ġeth ical
Ġsav ed
Ġsymbol s
Ġdist urb
Ġse ason
exp ected
Ġphot o
ĠC ase
Ġfund s
at hered
e ffic
ynam ic
ron t
ĠS HA
Ġoptim ized
Ġfac ility
ĠPe ople
Ġsubsequ ently
Ġbeg ins
Ġobtain ing
Ġcook ie
Ġequ ipped
F C
Ġn ight
ĠL isting
Ġp sych
ut s
or ter
Ġcr aw
Ġsub stitute
ĠS um
ĠAn g
ner gy
Ġinf inite
Ġacknow led
ĠI ran
6 2
D e
Ġd ual
Ġbook s
lo red
oc r
Ġelect rical
Ġle aves
Ġm im
Ġsecure ly
Ġbelie ved
Ġke yst
ĠX SS
ro ad
Ġre lying
omet imes
F G
Ġbound aries
Ġviol ations
Ġass urance
ĠTh ose
Ġsearc hes
Ġbot nets
Ġcomputation ally
Ġform ed
Ġjam ming
che ck
Ġstream s
Ġguarant eed
ĠSY N
Ġcont exts
Ġinsp ection
Ġan ten
Ġspoof ed
Ġcybercr ime
Ġrel ax
Ġleak s
s ub
Ġbi ometric
ĠB ank
Ġev ade
itect ure
n etwork
Ġdecent ralized
Ġnot ification
inst all
Ġthe r
loc ation
Ġhy pervisor
erm ark
ĠMon itor
ĠO pt
c s
Ġsign s
ribut ed
Ġ3 3
ĠD B
ĠSt uxnet
Ġcompat ible
Ġjob s
ĠA uthor
Ġc row
na issance
Ġrough ly
Ġhas hes
Ġaud ience
i ance
Ġtrans itions
ple x
f ers
Ġconcl usion
Ġunlike ly
Ġpoint ers
Ġdefend ers
c ap
air s
yn gress
Ġle tters
Ġmo ves
ĠD omain
ĠGr aph
Ġseg ments
Ġun w
Ġperiod s
ĠH uman
Ġdispl ays
Ġc atch
ĠG lobal
Ġutil izing
ĠRes ults
R es
Ġpopular ity
Ġsubstant ial
ric es
Ġvalid ity
ĠS R
por ts
ĠCO VID
Ġrang es
ĠO T
Ġ4 5
Ġdefend ing
Ġparticip ant
Ġg reen
Ġattempt ed
Ġinstall ing
ashing ton
Ġend point
Ġf irms
ular ity
ent y
f unction
ĠSpect re
Ġe yes
ĠFe ature
ĠW in
Ġ ing
Ġf ight
ĠN S
Ġdestro y
Ġver t
ect ing
Ġg athered
ĠW ik
Ġenh anced
Ġus ual
Ġex filtr
Ġaggreg ate
Ġsub mitted
Ġt ack
an ning
Ġr ational
Ġan tic
Ġtun nel
ic ates
Ġinc ons
ĠEqu ation
0 2
Ġm or
aa S
Ġlear ns
Ġrespond ents
Ġdis abled
Ġrec ording
Ġinnov ation
Ġgather ing
ellect ual
Ġe ase
ĠN AT
al og
Ġtreat ment
Ġplay ing
Ġkeyword s
Ġab normal
Ġpr ime
Ġload ing
Ġa id
Ġenvironment al
W S
cr itical
ĠAct ive
Ġresist ance
ht ml
ĠCan ada
Ġstruct ural
Ġattempt ing
Ġisol ated
Ġst ick
ĠR O
ĠR un
al t
g roup
4 7
ĠGerm an
plo ys
in der
Ġco in
Ġland scape
ro b
Ġres et
Ġsimpl icity
Ġquant itative
ĠInd ia
0 3
Ġengine er
Ġâ Ī
ĠW ashington
Ġop ens
od ay
Ġconstr ained
EN T
is y
Ġhij ack
k er
Ġv ote
Ġmus ic
Ġresol ve
Ġbelong ing
Ġexha ust
Ġlow est
Ġpl us
Ġstor ies
Ġcryptoc urrency
Ġident ifiers
f ield
S c
ĠS ee
un ing
d ec
Ġfl ight
ĠB re
Ġwh atever
Ġob lig
br a
e per
Ġch ose
ĠEv alu
Ġin ner
c lo
Ġkeep s
Ġsurpr ising
Ġremov al
ĠPro of
Ġpro min
tr aining
L AN
Ġseg mentation
W A
Ġsol id
Ġexpress ions
Ġeconom y
Ġang le
Ġaffect ing
C I
Ġth orough
Ġass ert
Ġauthent icate
Ġincor porate
os h
Ġe vic
ĠSe arch
ĠM ad
id ers
T ube
Ġra ised
Ġyoun g
g in
ĠL STM
Ġtell s
Ġhe avy
Ġord ers
ĠM TD
em por
ĠGr ad
SS L
Ġcomput es
ĠD ES
Ġm erg
th at
ic ial
Ġlat ent
ĠT rend
ĠUn ix
Ġcent ers
Ġcommunic ating
Ġenc ount
Ġtele phone
g a
ment al
Ġdep art
Ġdr ug
as p
Ġsub mit
R O
Ġs ke
t hen
Ġhistor ical
Ġmaintain s
ab y
Ġopp os
ul ent
Ġra ise
sh ot
Ġexplain s
ĠDav id
Ġreconstruct ion
add ing
ĠH ar
Ġsome what
ĠS O
ĠC ity
ĠE X
Ġcircumst ances
ĠM ir
ĠAp ache
Ġpo se
Ġchain s
Ġm ouse
Ġser ved
Ġsynt hes
Ġprof it
201 9
r ase
Ġhand sh
ĠN orm
s im
ĠC oll
Ġmere ly
Ġrandom ization
Ġour s
red ict
Ġsu ite
effect ive
Ġun lock
Ġdesign ers
Ġpe ers
ĠWh ite
Ġnon linear
ĠRem ote
5 2
Ġregul atory
ĠJ o
H e
ĠTr a
Ġh ab
5 00
Ġinform ed
TI ON
ĠSt ore
1 01
ĠA ud
Ġunder stood
ar a
ĠD S
h ow
Ã ©
Ġhierarch y
Ġcl ar
Ġscen e
rook s
ĠApp lications
z illa
Ġv ital
ri an
iz able
Ġformat s
5 4
Ġp ain
0 6
ĠGerm any
Ġtre ated
ĠF unction
Ġad vice
ĠH ost
Ġf em
ĠIn put
ĠYou Tube
est ed
ug g
Ġcompar able
Ġdoll ars
Ġlo se
lo od
Ġantic ip
ĠL abor
r ain
Ġmod er
r ated
ĠW ire
Ġpre par
Ġp and
Ġhelp ed
Ġ19 2
Ġneg lig
Ġmut ual
Ġsu pervised
c ol
Ġcomput ations
ail able
Ġdr one
ĠS un
EC T
en abled
ĠAuthent ication
ĠI M
Ġvis ibility
Ġper ception
Ġestabl ishing
Ġinser t
ĠAR M
ion al
Ġread s
k es
as ts
ĠP erson
ĠRe view
ĠJ S
Ġque ue
Ġoffic er
Ġyield s
Ġhierarch ical
Ġcore s
writ ten
ith met
ĠRec all
Ġparad igm
re nt
ĠCon v
Ġcon gest
Ġres er
em y
Ġdisclo sed
ĠH ist
Ġrandom ness
Ġcare ful
Ġpredict ive
Ġsec uring
Ġmat rices
ĠTh ough
Ġdeg rees
D E
n ames
ĠAn onymous
Ġsubs ystem
Ġsubred dit
Ġs enior
Ġobser ving
Ġlock ed
g ent
ĠV II
ig en
Ġcoll ision
Ġun expected
ĠInt erest
Ġconvers ation
ĠS oph
ĠF R
s ize
Ġre aches
c hers
p ost
Ġper man
Ġcorrupt ed
orph ic
c p
Ġinc ur
Ġsqu are
l en
ĠX OR
Ġresid ual
Ġtel ec
ĠM B
Ġund et
Ġprev al
Ġcon ce
al es
Ġpro s
Ġpay ing
ĠL AN
Ġsepar ation
ĠL ib
ĠR ad
Ġpat ching
Ġadapt ed
Ġdem ands
ĠRe al
ag r
Ġend s
um es
est s
u ine
Ġsn ap
Ġcon stit
Ġfunctional ities
O ne
Ġt ight
b us
C on
Ġth row
Ġpreser ve
l ib
Ġpoison ed
gr ained
m aking
Ġcyber attacks
Ġrang ing
rastr ucture
---- ----
Ġpayload s
R C
ĠD em
ĠF TP
Ġcooper ation
Ġsystem atic
ce l
ĠSec ret
U M
Ġhor izon
Ġsimpl er
Ġpay ments
Ġsimilar ly
fact or
ii i
v able
Ġsam pled
ĠR L
Ġnat urally
for d
Ġmob ility
r un
Ġadministr ation
Ġgeneral ization
U L
rol l
Ġsu ffer
Ġvisual ization
U I
Ġrank ing
Ġtechn ological
ĠPC I
Ġmis le
Ġorgan isation
ĠC ON
d ed
Ġhe art
F low
Ġ200 1
Ġreview ed
ĠD an
am ent
ĠCh rist
c f
Ġt rojan
Ġdep icted
Ġwr ites
Ġpass es
Ġcalc ulation
Ġw it
Ġequival ence
ĠS oci
Ġca ught
Ġcert ified
Ġbench marks
Ġl ies
ĠT ur
Ġmess aging
Ġsp ear
ĠL ook
Ġcont acts
Ġh un
se en
Ġrepl acing
Ġdist ances
ĠS am
ĠEnterpr ise
ĠV e
Ġ199 0
Ġscam s
Ġbre aking
ĠâĢ ¦
Ġcharacter istic
inter ference
ĠC a
Ġun int
Ġcur ves
ĠGDP R
ĠX P
Ġgad gets
Ġrele ases
Ġwork load
ĠAf ric
ithmet ic
Ġlim iting
ĠC AP
ac ent
Ġal ar
ĠP U
ĠF OR
Ġbl ind
Ġext ens
Ġm ic
Ġrow s
ĠC H
Ġplay ed
Ġtyp ing
Ġtw ice
ĠH aving
ock et
Ġcomp ens
a id
Ġconcer ning
Ġconduct ing
Ġcountermeas ure
Ġconsider able
Ġscient ists
ĠMem ory
r ant
Ġen j
Ġent ering
Ġdefin ite
Ġpro active
Ġcor ruption
Ġar ise
ch ang
Ġcy berspace
ur acy
Ġpers ist
ĠR out
mer ce
Ġrel ays
as hed
Ġr ing
Ġofficial s
Ġ80 2
Ġtransport ation
Ġcharacter ize
pl ain
ĠSupp ort
I oT
Ġaccording ly
Ġcollabor ative
Ġloc ate
an ks
IT Y
Ġpropos al
Ġob st
com m
s m
roj ans
un der
Ġv an
Ġinterpre ted
ĠT imes
w ar
ĠNot ice
Ġpart ner
ĠS il
ers ion
Ġp in
Ġoccurre nce
Ġinitial ization
ĠKore a
Ġre use
Ġdriv en
Ġgr an
Ġsecure d
Ġwat ermark
oun ter
ĠF I
Ġcorre lated
ĠL ocal
Ġown ed
Ġprim itives
ĠPh ysical
Ġa ver
Ġdrop s
Ġr ace
d d
Ġc aches
Ġmed ian
Ġf aces
Ġprov ision
Ġclick ing
B y
ant ic
ot ic
Ġh iding
re le
em pl
Ġs ink
Ġdiscuss ions
Ġtempor ary
Ġful fill
p ower
Ġspe aking
Ġqu ad
Ġ3 6
ĠMan ager
p et
Ġdis ass
Ġdisc ard
Ġprogram mer
r andom
Ġ7 5
Ġinser ted
Ġ200 2
ĠC OM
Ġrec ru
Ġ9 8
Ġperiod ically
Ġdraw n
Ġdr am
Ġtit le
W OR
Ġcare er
ist ingu
ĠB el
ne g
Ġc ities
Ġfund ing
Ġunn ecess
0 9
A I
ĠBu ild
ĠOver all
Ġpro ducing
Ġfound ation
Ġro ll
Ġfac ts
Ġform ulation
Ġwh om
prot ected
Ġhead ers
Ġdownload ing
Ġactu ators
Ġgeneral ized
Ġopt ical
Ġreg ulation
P s
Ġexperi ences
Ġgen uine
Ġdescript ions
et ing
Ġstrict ly
R ep
Ġr ich
Ġtransform ed
ĠG en
Ġquant ify
ag s
w n
ĠD i
lear ning
Ġlic ens
Ġadv is
ĠG it
ĠAdd ress
Ġv ice
Ġflo od
ĠM or
ess or
Ġmet ers
ĠAl tern
p res
Ġb ounty
Ġexhib it
ĠC er
The se
Ġdownload s
ah oo
ĠStand ards
Ġnot ation
Ġcomprom ising
Ġheur istic
Ġfrequ encies
ĠC ap
aren ts
i ences
Ġprop oses
T A
tic es
istingu ish
Ġun f
t yp
B P
Ġfraud ulent
Ġgraph ical
is p
Ġconnect s
d b
ĠR S
ge bra
ĠPass word
Ġannoun ce
d ist
Ġmay be
Ġeng age
ag ue
The y
A r
Ġexp ans
Ġopin ion
s he
Ġdirect or
Ġflag s
Ġl iving
ĠF our
ic ing
Ġflo oding
Ġcon vert
Ġdeploy ing
Ġconstruct s
Ġplan ned
le ft
Ġpubl ish
ĠApp ro
ĠAustral ia
Ġb irth
X X
Ġfac ial
Ġrec overed
ĠStr ateg
Ġvert ex
d a
g en
Ġcharacter ized
az ine
Ġbas ically
Ġpl ays
S o
Ġk it
Ġann ual
sec ure
Ġche m
D C
U N
ĠL ow
ĠP en
Ġconsist ently
ĠIm plement
Ġphenomen on
ĠDepend ing
ĠH u
Ġconcl usions
Ġp uzz
ĠCom mit
T ER
Ġcoord ination
r d
A X
Ġst ations
Ġtr ap
ĠAut o
uct ive
c her
Ġep is
Ġsummar ized
M s
Ġbar ri
ĠT el
c or
Ġprim itive
eng er
Ġgener ative
Ġexp ose
Ġcommit ment
ĠS V
ĠL anguage
Ġforum s
Ġver ifying
Ġaccompl ish
Ġagre ed
Ġdial og
Ġinvestig ations
Ġg ates
Ġconven ient
' .
Ġ25 6
Ġinsp ired
Ġint ellectual
Ġnar row
ab ase
Ġare n
Ġtransp arent
v is
Ġg arb
Ġmult ip
lim inary
Ġrepe at
Ġreach ing
Ġfl ash
ip hers
paramet ers
Ġrare ly
le ts
ĠE M
Ġcho oses
Ġupload ed
Ġdistribut e
Ġsole ly
Ġdiscuss es
ĠD a
Ġgain ing
K I
es e
ĠCont ent
Ġprob e
AN ET
C ont
ĠH at
ost ic
ed u
ĠPer formance
F GSM
Ġequ ally
Ġlo ve
in it
Ġ3 00
ĠU I
h avi
9 3
Ġa ux
t echn
s ensitive
201 6
ĠIm p
ĠL ater
Ġtrust worth
Ġhone ypot
ec ution
Ġprefer red
ft en
Ġput ting
Ġgraph ics
Ġscal able
et her
ĠL ayer
Ġindic ator
Ġintu ition
Ġadequ ate
ĠT oday
ĠJ e
ĠEnc ryption
vir us
Ġhand ler
D ata
Ġg aps
Ġdisc onn
ĠCoun cil
ili ary
Ġmin ers
Ġcompet itive
Ġtax onomy
Ġdisc ipl
Ġnavig ation
ĠDevelop ment
Ġf ather
Ġper cept
Ġvis ited
enc rypted
ĠCong ress
ĠEn d
Ġleg acy
Ġutil izes
Ġartif acts
Ġon t
d ers
ĠCommun ication
Ġgain s
as hes
Ġdist ortion
as ure
ble m
ĠTr ump
wr iting
ĠSp ace
ĠRes ear
Ġfingerprint ing
Ġbr ings
ĠE nt
ĠOn line
Ġdeli ber
et ime
Ġinf iltr
ĠD u
Ġre ject
Ġrepeated ly
Ġhelp ing
T able
enc ing
re m
it er
tr ain
ub l
er ving
w art
ĠUAV s
v ation
Ġcomb ines
c at
z ero
de pth
ĠCrypt o
Ġmen u
Ġdec omp
Ġelectric ity
i pping
Ġp ull
Ġar ithmetic
Ġprep are
Ġcons erv
Ġli b
ĠC FI
Ġsell ing
Ġoutperform s
Ġrest ore
ĠMich ael
ĠM edia
t ically
Ġhe at
t a
ĠC ost
Ġdis e
Ġtrans fers
ĠLe g
ĠGN U
Ġsynt hesis
Ġweight ed
Ġrecon naissance
com ing
Ġoper ated
Gu ard
Ġne ut
ĠD on
ĠSoph os
Att ack
Ġp le
Ġvir t
ren ch
0 8
Ġheter ogeneous
h ouse
ĠT CB
ech o
Ġtri al
Ġanomal ous
Ġpan el
ĠM ain
Ġneg ot
fr ame
Ġprom ote
Ġoccur ring
ĠComp ared
Ġout s
Ġrem ark
Ġ( )
Ġsepar ated
ot es
Ġatt est
m d
Ġgood s
Ġpres ident
Ġsp ending
Ġfeas ibility
ail ed
ĠE nergy
ĠL im
C om
ut ed
Ġsubsc rib
Ġst ock
Ġsock et
Ġhandsh ake
Ġem ploys
l ights
ĠCor poration
ĠAttack ers
s yngress
Ġfor th
N G
ĠP oint
ĠZ e
Ġp arents
Ġbo ost
i pt
Ġbelong s
ĠAC K
Ġfore cast
Ġno isy
Ġcop ied
Ġco ol
Ġneighbor hood
are st
Ġminim izing
Ġde eper
Ġag gress
Ġrep ly
ĠB at
ĠFr anc
Ġdig its
Ġord ered
Ġenfor ced
Ġspy ware
Ġst ead
requ ency
p us
Ġdis ruption
Ġconj unction
Ġsummar ize
m its
ĠWith in
il ter
Ġencour age
ĠIntr usion
Ġcomp ile
her n
Ġ _
Ġexpl oration
Ġfingerpr ints
Ġsn iff
the ore
Ġbrid ge
Ġbuild s
as ploit
ĠS ometimes
Ġhij acking
ĠTr ue
Ġbig ger
ĠT erm
Ġex cell
Ġnormal ized
ĠL LC
T ech
Ġ4 8
Ġdis p
Ġdo ct
5 8
Ġ Â
: :
ur ch
Ġrout es
ĠDe v
Ġroot kit
Ġh ur
Ġthan k
201 4
Ġconve x
Ġfe ar
ĠW ell
a pped
S hell
ĠMo zilla
Ġan im
Ġlever aged
Ġrespons ibilities
Ġfac ing
Ġwar fare
u ate
il ed
ĠFor ce
Ġdec om
Ġmov ie
Ġcall er
Ġhand les
ĠBl ue
ph p
W hen
ĠCour t
Ġhappen ing
Ġfour th
Ġpred icate
Ġscan ner
Ġbit coin
at en
ĠRec ently
C N
mod el
ĠDe vice
ĠR ef
im eter
Ġa p
C D
Ġorganis ations
Ġper mitted
Ġwit ness
Ġany where
Ġre wards
ĠDirect or
Ġtr uly
ro vers
ĠR ich
9 2
ĠG B
Ġpol it
Ġd ut
ĠSpec ial
Ġparticip ate
Ġactiv ated
Ġc asc
Ġdifferent ly
ri end
Ġsm oot
ĠID A
Ġepoch s
as ive
Ġrob ots
Ġassess ments
ĠW r
c ious
ul a
al low
b all
Ġel abor
d ing
ĠL ist
10 5
Ġbu ck
m em
g ment
Ġind istinguish
Ġutil ities
Ġw alle
Ġun iversity
Ġcoun ts
u itively
Ġscript ing
Ġback ward
C NN
Ġfac ed
ron ics
Ġext ends
Ġc um
omm od
Ġv aries
Ġpred efined
Ġsatell ite
Ġexploit able
Ġlever ages
Ġlaun ching
Ġprotect ions
Ġfin ished
ĠTyp ically
Ġend points
ĠV GG
oun der
Ġpromin ent
Ġmin er
lo y
Ġcapt uring
ĠB ell
ond on
ynchron ous
S QL
Ġacc um
ĠC ustom
ĠKing dom
Ġformul as
Ġnot able
ĠAR P
ĠA M
Ġarch ive
Ġc iphers
d at
H ub
an alysis
s el
Ġt rivial
Ġcategor ized
Ġtele vision
Ġconsider ations
Ġs leep
u lo
Ġmultipl ication
urp ose
ac les
Ġact ing
Ġdirect ories
Ġrec ur
Ġrestrict ion
Ġclass ic
Ġneglig ible
an a
ĠC ross
al so
Ġ3 4
l or
ut ation
Ġper mit
ell ed
Ġhe ar
ĠC arl
Ġsh ap
Ġn ine
Ġnew er
Ġappro ved
Ġkeyst ro
Ġre active
Ġcost ly
Ġdiff ers
B SD
ĠEther net
ĠCl ient
h ard
ro ot
ĠIC MP
Ġup grade
Ġbroad er
Ġfe e
ĠHack er
ĠS ing
ĠP rior
c ies
Ġacc ommod
Ġc rooks
Ġoff ensive
Ġf ab
Ġto t
i able
Ġexpans ion
Ġsto pped
ĠEx change
Ġhe ard
Ġpre liminary
ĠMess age
ĠU l
ĠD ynamic
Ġcr imes
c rib
is ons
Ġexpand ed
Ġthan ks
ĠWire less
E A
E ye
pos ium
ac ies
Ġdes irable
6 1
ĠF L
Ġmer ch
Ġaux iliary
Ġcomp ares
Ġincl usion
ĠO N
Ġpre y
Ġtick et
ĠT L
Ġgener ators
Ġdis app
l iv
Ġ6 5
is hers
Ġmod ular
Ġfigure s
Ġdec ade
Ġpict ures
Ġpro x
Ġdec oy
Ġh ub
ĠZh ang
ĠD ark
Ġcommit ted
Ġdesign er
ĠF low
Ġobvious ly
aren cy
ĠInf rastructure
s ign
l in
Ġexp ort
ad vant
pr ing
Ġimportant ly
rele vant
Ġcent ury
Ġsurround ing
Ġoutl ined
e books
Ġnot ing
ĠAssoci ation
t xt
b ot
Ġvirtual ization
Ġc ast
Ġex cess
ĠE ffect
Ġch ief
Ġb ird
Ġsimpl ified
Ġinvari ant
Ġunus ual
Ġbu ff
Ġt aint
Ġincom plete
ĠD own
Ġemerg ed
c ity
Ġha z
ip edia
Ġhold ing
Ġsp arse
Ġdist ill
Ġadv oc
ĠM C
b ps
a fter
Ġat omic
if er
off s
ron es
Ġup grad
Ġutil ization
Ġver tices
D M
Ġcongest ion
Ġal t
Ġinvestig ating
Ġdraw back
Ġdebug ger
ĠF AT
Ġcon st
ĠR ather
ĠHy per
ĠM ail
Ġunnecess ary
ok en
Ġweap ons
Ġal ph
g g
n on
z ant
Ġp un
ond s
Ġarr ang
ĠSn ort
ĠCre ate
kn ow
Ġprotect s
I s
v ol
ag on
Ġcontinu ity
Ġtime ly
Ġ8 00
Ġleaders hip
( ),
ĠFire wall
Ġf ed
ĠM P
Ġhe ight
ĠCompar ison
Ġiniti ated
Ġincorpor ated
ĠReg ard
Ġowners hip
en ame
Ġregular ization
Ġlas er
Ġsu d
C L
Y ou
ĠCPU s
0 7
Ġexcept ions
out s
Ġp adding
Ġst em
Ġencount ered
Ġhe x
Ġn om
Ġ3 7
loc al
u it
ĠL ondon
ĠDeb ian
Ġun av
ĠN at
in ement
M AC
Ġte ac
Ġdec ades
Ġh ole
Ġlist ing
Ġunsu pervised
Ġcomb at
Ġa ward
Ġpre ferences
Ġexchang ed
urren cies
b ase
ĠVM s
K S
ĠN T
Ġ ri
Ġdet er
25 6
Ġinstit ution
Ġre bo
on ic
5 9
Ġselect s
Ġ199 9
ĠY et
ĠAnt i
Ġj ail
Ġmist akes
ĠR AT
10 4
Ġexecut ives
lim ited
o on
iqu es
Ġign ored
ĠDes cription
D ef
Ġbeh alf
Ġcircum vent
we b
Ġdefe at
Ġinters ection
Ġattach ment
201 3
Ġevol ving
Ġo vers
ĠDist ributed
Ġbenef icial
Ġlist ening
Ġredund ancy
Ġinf o
ĠMean while
Ġmanip ulated
I O
ac on
Ġtr acing
Ġoverl ap
Ġtoler ance
Ġsu it
d irect
ĠDis c
ĠF rench
Ġstand s
R S
Ġprogram mers
ĠDN A
ond ition
ĠPl atform
Ġlist en
Ġsee king
id ering
Ġal gebra
Ġrig or
I nt
Ġattract ive
ĠCommit tee
form ed
ĠB ot
ig uring
Ġvalid ated
ĠAss ess
Ġf eder
xim ity
Ġw ider
Ġcoordin ate
y cle
ist ically
Ġpe ak
Ġconf usion
Ġn ice
Ġf usion
Ġtraject ory
Ġperfect ly
ĠZ ero
: \
Ġver tical
Ġpr ices
Ġmethod ologies
Ġredund ant
Ġcompat ibility
Ġde em
Ġgad get
ĠD el
ĠY ahoo
Ġcarry ing
ĠIndust ry
os is
ĠSoci ety
st age
Ġexecut ions
Ġprob ing
Ġmin ute
Ġappear ance
5 7
Ġcover ing
Ġcon sole
Ġnot ifications
by te
am mer
ĠE q
Ġsm ooth
ĠWill i
Ġmet er
ĠH ouse
ĠOr acle
Ġprov ing
ĠR C
Ġar m
ĠGu ard
ĠPre vious
Ġhigh lights
Ġcont rovers
s ion
20 20
Ġwor ry
ĠS chool
l ands
a ur
ep ing
in formation
Ġ echo
ĠW ang
Ġevalu ations
Ġarchitect ural
Ġcollect s
Ġeduc ational
n ew
Ġcor pus
Ġf i
Ġdecl ared
ĠD M
ĠE th
Ġl ie
Ġtra vers
Ġre action
c al
ent ed
Ġthreshold s
Ġwe ar
Ġcons ecutive
Ġpur su
o om
Ġle ts
Ġclo s
Ġord inary
ĠF alse
ĠInt uitively
ĠResear chers
Ġchecks um
Ġp it
ĠB I
ad o
Ġsud den
arget ed
Ġextract ing
in ity
M B
Ġsafe ly
9 1
at on
he ther
Ġnetwork ed
ari o
Ġtur ning
Ġsust ain
Ġn ations
Ġst im
Ġdesc ent
val id
Ġgr ay
Ġspec ifying
Ġd ie
ĠF ast
Ġstudy ing
ĠA B
Ġmac ro
Ġcor por
Ġc urrency
Ġevol ved
Ġaccount ing
Ġadv ances
== ==
Ġpand emic
ĠMet asploit
Ġavoid ing
Ġconver ted
Ġban ned
Ġprincip als
cid ent
Ġa ffor
Ġre feren
Ġf als
on ents
us es
Ġprevent ed
ĠPro duct
Ġaud iting
Ġdegrad ation
ĠG ame
es tern
Ġpro l
ĠTe le
Ġcell ular
ĠFr ance
ĠM ake
ĠA N
201 5
ĠE con
? "
AN D
ogn ition
ĠLabor atory
Ġins u
Ġgovern ance
p erson
Ġpi lot
i ers
ĠN ort
ri ed
Ġobserv able
ĠS IG
Ġgu ys
Ġdiss em
Ġlegis lation
Ġgen etic
Ġin her
P ress
ĠInvest ig
ĠOrgan izations
Ġg one
ĠG reen
Ġspeak er
am m
9 7
Ġdebug ging
Ġspread ing
R A
ad ed
Ġoppos ite
ĠM ic
ĠH om
ĠC SP
ĠOper ation
Ġglob ally
ĠV irus
T or
ĠH el
Ġw all
Ġw ind
Ġreflect s
b an
Ġassess ing
ĠK en
ĠD iff
Ġm ir
ĠU N
Ġconvers ations
en ess
Ġconclud ed
is is
Ġgr ab
Ġdefinite ly
Ġbox es
ax is
ĠUp on
Ġprint ed
ic o
ĠC all
Ġatt ribution
Ġinf ections
i as
og ether
Ġocc asion
Ġdis advant
theore tic
Ġcalc ulating
Ġhosp ital
ĠAcc uracy
Ġrecommend ation
Ġscan ners
ĠAn n
Ġcoordin ated
Ġunder ground
e as
v in
a e
Ġb und
th is
Ġtempl ates
z en
Ġinter oper
Ġper pet
ons ored
bound ed
Ġschedul ed
p ol
ĠE mail
Ġt ends
Ġbackdo ors
Ġenj oy
ĠBo olean
ĠA MD
un c
Ġle m
Ġdecrypt ed
Ġp ump
ĠCent ral
ai lored
itor ies
Ġperiod ic
ĠIs ra
ĠS IM
Ġconstruct ing
Ġexam ining
U P
Ġm ent
er ion
ĠB L
ĠSc ript
ĠT O
th rough
Ġo il
ĠRec ent
rog ate
Ġwork er
ph ishing
ĠDen ial
Ġt ail
Ġmove ments
w hel
qu er
zant ine
Ġwe ather
Ġobser ver
F ile
Ġstart up
Ġd raft
Ġloop s
Ġmand atory
ĠIm pro
Ġinc ome
ĠQ ual
app ro
9 4
C s
r ich
Ġtrack s
Ġb attle
ĠD ocu
Ġpredict ing
Ġch ips
Ġ velo
Ġp orn
Ġinvok ed
ste in
ĠM ot
Ġs lot
Ġpl acement
Ġrein forcement
ĠF uture
Ġintu itive
ĠO P
Ġassoci ation
ĠEn viron
ra z
f ellow
ĠExper im
ĠOther wise
Ġviol ate
Ġeng agement
Ġautom ate
^ {
Ġdis aster
Ġg ir
Ġpart itions
ĠH and
Ġnear by
R s
Ġ( @
Ġintr usions
Ġattach ments
Ġb omb
met ry
Ġexcell ent
W indows
ĠK er
ĠL ic
I A
ĠM art
ag n
Ġargu ed
Ġ/ /
Ġuns afe
al ed
c oded
Ġclaim ing
Ġ4 2
Ġlight weight
Ġqu arter
Ġkey log
ĠOb ser
Ġevol ve
ber t
Ġenc ounter
ĠF DI
ĠU NI
Ġem otion
ĠSc en
el and
v i
Ġpract ition
Ġobfusc ated
ĠE duc
Ġsc aling
m iddle
Ġs ale
ĠCh all
Ġmult ic
ect s
ĠC M
Ġprox ies
a ive
ĠU k
ĠElect ronic
Ġrev ocation
Ġparticip ating
Ġvol umes
ĠH o
Ġimag ine
ĠBe low
d ig
ĠArch itecture
R T
op en
Ġiniti ate
et he
Ġdep os
Ġstreng then
ĠL at
Ġmat ched
V ER
ĠB er
NN s
Ġoption al
C PS
Ġindu ced
Ġa w
Ġinsu fficient
Ġas ks
m as
elt down
as et
or ial
Ġpre processing
Ġbeh ave
enc oder
ĠTechn ical
p ack
Ġpseud o
re l
ĠB ase
ĠDat abase
Ġsome where
w ell
ten ess
ĠTest ing
C VE
ĠVulner abilities
% ),
00 1
Ġarbit r
ĠPart ic
od ies
Ġalar ms
Ġover whel
201 2
Ġretrie ved
Ġfore st
ĠGrad ient
Ġb id
ĠIdent ity
Ġenc ode
lo op
Ġpost ure
Ġremain der
Ġreach able
Ġdepart ments
ĠEvalu ation
or a
Ġcent r
ĠMal icious
Ġend ed
p rop
Ġencrypt ing
Ġtransmit ter
Ġbul let
omet er
Ġguess ing
Ġm other
Ġplug in
fit ting
Ġsignific ance
Ġ9 6
Ġch ances
Ġflo or
ĠAr tificial
Ġpublic ations
Ġhypot hes
Ġfix es
Ġd om
âĢĻ ,
Ġexpl oring
v ention
Ġtyp ed
Ġcour ses
U RL
Ġm ys
C K
Ġassoci ate
ĠT otal
Ġweap on
Ġmist ake
Ġlo ts
Ġadj acent
ĠI SA
Ġpro sec
ĠTrans fer
F ig
Ġst ating
T s
Ġnon ce
S im
ĠSym posium
Ġmitig ating
an na
ĠS EE
ĠS OC
k in
Ġpenal ty
K ey
Ġfor get
Ġfuzz y
Ġmisclass ification
ĠAg ent
Ġsound s
Ġn an
st ations
Ġe igen
Ġinteract ing
Ġcarri er
Ġreve aling
ĠGener ally
ĠB GP
ĠSur ve
Ġcompil ation
ĠR ate
ĠT ech
est ion
SM A
Ġmodel ling
Ġasym metric
Ġattribut ed
v ar
Ġinflu enced
Ġ[ /
ĠS en
ro om
Ġextens ively
effic ients
pres erving
ĠOr ig
Ġcharg es
dis c
Ġempir ically
omet rics
Ġposs ibilities
A F
Ġ3 8
ĠN P
Ġread ily
h op
Ġemploy ing
Ġgrid s
Ġspec ulative
ĠOrgan ization
Ġsubstant ially
L ab
ĠAr my
ĠT rojans
Ġpubl ishing
ĠJe ff
ĠT H
hol der
Ġcustom ized
Ġde als
b b
Ġdecre asing
Ġfall s
Ġb lood
Q u
q l
Ġuniform ly
g i
O G
w in
B ased
et h
s um
Ġrep air
Ġ4 00
ra ud
Ġpe ace
Ġform ation
I F
C loud
Ġsho pping
ĠCurrent ly
Ġvis itors
Ġcollect ive
Ġembedd ings
hic le
Ġdecl ar
Ġded u
Ġassist ance
Ġcomple tion
Ġadversarial ly
z ing
ĠFore ns
R ec
ĠVis ual
u ble
Ġanaly tical
Ġcaus al
ĠGit Hub
Ġwh it
ĠOpen SSL
Ġt ap
ĠTh ree
Ġapparent ly
ansom ware
ĠR oot
ĠPh ase
Ġfl at
ĠCer tific
Ġrefl ected
Ġnot ions
Ġsent ences
Ġgreat est
Ġrequest ing
ĠOut put
Ġsatisf ying
Ġ EF
ĠInst all
Ġd rones
ĠR ule
Ġstr ugg
ĠA z
ĠC ert
Ġsmall est
Ġmat ters
ĠG ET
Ġwrit er
Ġc ensors
ĠCons idering
Ġsn ipp
us ively
ĠD rop
Ġsp an
ĠAlex a
u ation
ĠD OS
l ife
T LS
ĠWi Fi
Ġsubs ection
ĠP P
Ġread ings
Ġdat es
n g
Ġden ied
ĠF IG
Ġout going
ĠS wit
G S
ĠSupp ose
u ro
Ġsol ver
ĠN N
Ġvot er
Ġint ensity
Ġaggreg ated
ot ive
ĠS i
Ġal tered
Ġcomp ly
Ġmut ation
so ph
ĠC F
ĠN OT
eng ine
ĠDist ribution
Ġb ind
ond uct
ĠA verage
C l
a j
Ġ19 80
Ġdef ence
y l
ec ycle
Ġmas king
ĠTrans port
Ġpro ximity
Ġcrit erion
Ġren dering
ĠJ ames
Ġconcept ual
e k
Ġdec oding
Ġgr am
Th at
Ġpus hed
Ġprogram m
Ġgrow s
Ġge ograph
c an
Ġtransmit ting
ĠTra ffic
Ġfil ed
Ġcol ors
Ġtrans missions
B N
Ġquant ity
T M
ĠPower Shell
Ġman ages
ĠM ont
ĠL ock
AT E
ĠSm all
Ġdec ides
Ġed it
ĠP S
Ġ9 7
Ġattest ation
ĠU P
ĠImp act
o gram
ĠIndust rial
Ġunw anted
havi or
Ġcom fort
Ser vice
Ġinject ing
Ġdang er
ess us
Ġchem ical
Ġinter conn
Ġcor ner
Ġt iny
Ġsuper ior
ĠL L
r ame
ĠH er
Ġadvertis ements
ĠSt ack
ĠG old
Ġcooper ative
ĠCom b
Ġh oc
Ġcon form
I V
Ġf et
Ġnew sp
ri p
Ġt ailored
Ġproduct ivity
Ġ4 3
ĠSu ccess
Ġf uel
Ġtrans ient
com pl
lud ed
Ġtransp arency
ĠP an
Ġcharg ed
ĠPa per
b en
ĠS ams
Ġver ifier
Ġmicro arch
verse ly
Ġg ender
b its
ĠB P
comput er
tain ing
Ġrad ar
Ġbuild ings
ĠL ive
Rep ublic
Ġintention ally
Ġ199 8
ĠS at
Ġ4 1
Ġcr acking
B s
Ġcou pled
Ġ4 4
struct ion
Ġpurch ased
Ġsur rogate
Ġpreser ving
ĠH ot
Ġsub tle
control led
Ġform ulated
Ġper ipher
____ ____
Ġun ified
% ).
Ġorder ing
Ġwin ning
ĠS em
in er
bre ak
Ġb inding
ĠAltern atively
c ard
Ġincorpor ating
Ġsan it
Ġwarning s
Ġco efficients
Ġm ental
ĠM it
ĠIP s
Ġw al
Ġd ense
ĠP ath
Ġc e
H S
Ġanten na
Ġinvolve ment
Ġvot es
ĠS ony
ĠE as
ĠSc ient
Ġclick ed
ĠM eltdown
f riend
al one
ĠP ract
ĠS now
Ġresol ved
Ġev ident
ĠW est
Ġrem ained
Ġsusp ected
Ġtrack ed
im age
ĠWork shop
IM E
Ġcontext ual
or row
ĠS afe
ĠRob ust
ĠV iew
ĠP al
ĠFor m
Ġmis use
ĠB Y
Ġtwe et
ĠTool s
Ġdiv ision
ĠF A
ĠV ersion
ĠN A
Ġlength s
Ġf at
Ġ5 6
Ġindivid ually
Ġtelec ommun
ĠP OST
mal ware
Ġcompli ant
et erm
Ġmanip ulating
Ġescal ation
ĠHard ware
d epend
m ode
ĠSu per
Ġsmoot hing
ĠPr inc
ĠISP s
ĠD E
IC E
im edia
l ists
Ġ icon
ĠTechn ologies
ĠAS es
Ġdro pping
b ing
Ġd ot
ĠAcc ount
our cing
ĠSt all
ĠB S
S ecurity
Ġk ids
B ox
itud es
' )
Ġco efficient
che str
Ġtransl ate
M an
Ġautom ata
ill er
Ġg old
unct ions
Ġdiscuss ing
ĠInterest ingly
Ġper imeter
Ġstead y
um my
ĠT om
es h
Ġsimpl est
ĠCI SO
Ġsh orter
Ġreli ably
Ġdistin ction
Ġpr ison
N o
er os
ag ner
Ġsimilar ities
word s
y er
Ġslow er
Ġprof iling
ĠUk rain
Ġpreced ing
ĠM A
Ġdiscrimin ator
ĠDirect ory
Ġtu ple
Ġconsider ably
Ġp lots
ig g
ĠComp any
ist ed
ĠAdd itional
ĠT ask
Ġepis ode
Ġo sc
An d
Ġaccompl ished
IN D
ĠT uring
ĠC am
ec ode
Ġrank ed
Ġimp osed
Ġcontain ers
Ġindu ce
Ġ5 3
Ġth wart
Ġdiv ide
Ġexpect ations
Ġauthent icity
us ter
Ġadapt ation
Ġpul led
ĠA WS
ĠCrit ical
Ġ3 9
Ġin effective
Ġconflic ts
( "
Ġappro val
Ġvelo city
t ure
Ġinherent ly
Ġch air
Ġpar sing
ĠBy zantine
ĠPriv ate
Ġfrag ment
Ġdifferent iate
ĠU b
atch ing
Ġthous and
tr a
Ġperson ally
Ġstream ing
ĠN ode
ĠPro blem
G r
ĠJ P
Ġdisclo se
ĠG mail
Ġfree ly
Ġpropos als
Ġmim ic
Ġbelie ves
Ġintegr ating
ĠMulti ple
Ġsimpl ify
Ad v
t able
ĠSaf ety
ĠCAP TC
Ġpresent ing
ĠC L
Ġdepend ence
Ġasym pt
. ).
ip e
ĠAttack er
emb les
ĠP A
ol id
ĠS pring
Ġaccept ance
Ġpartners hip
Ġaccept s
Ġsafegu ard
Ġsystem atically
Ġser ving
Ġ5 5
Ġcoordin ates
Ġform ulate
Ġtrad ing
I PS
ĠS AP
and er
A ll
Ġh o
Ġaff ili
Ġcl in
ĠAT M
ag ent
ĠTh om
Ġext ending
Ġarbitr arily
Ġacc omp
our ced
Ġcomp act
ĠTr ad
ĠPh ishing
d ated
Ġcorpor ations
Ġc able
Ġtro uble
Ġdesign ated
Ġwas te
ĠRep ublic
Ġmig ration
Ġtot ally
Ġdis j
Ġlo sing
R P
Ġfem ale
Ġp ad
ĠM r
ĠW SN
Ġweak er
Ġob sc
Ġrest art
Ġpers ons
Ġpick ed
Ġobtain s
Ġren ew
Ġ4 6
on or
ĠStall man
Ġregard ed
ĠD O
ĠUp date
ĠO ff
ĠT S
Ġfam ous
paramet er
Ġeavesdro pping
ur is
Ġse es
Ġar g
Ġgran ularity
I m
ĠS l
an ies
Ġterm ination
Ġremo ves
c ut
Ġvirt ually
om orphic
Ġimpact ed
ĠDec ision
ĠP os
icro soft
Ġp ed
ĠBlock chain
Ġpol l
ĠY es
ĠA E
ar ks
Ġsh uff
b a
ĠPro per
ee k
val ues
att ice
Ġmechan ical
Ġunivers ities
s ets
Ġpro jection
re y
yp ots
ĠI ss
ĠSc an
Ġvi able
Ġconfirm ation
Ġmag netic
po of
Ġlif etime
Ġdevelop ments
ut ing
est ing
Ġcl icks
AR T
agr aph
ĠW H
v y
ĠUn it
Ġneg atives
v ance
Ġtack le
Ġschool s
ĠMod ern
ĠS U
ĠAr ab
t exts
Ġs ake
Ġimp ly
Ġopp onent
IS C
ist ant
B ER
Ġslow ly
ain ts
Ġoffic ers
Ġele v
in et
Ġdoub t
Ġscal es
ĠAs ia
b ur
Ġt ied
ĠR est
ĠHack ers
Ġcr ashes
pe er
Ġfit ness
Ġbi ological
Ġcal ib
ĠDe vices
Ġmiss ed
ag ues
ĠT ext
Ad d
Ġexcl usively
ĠLic ense
Ġre ct
Ġwrit ers
ĠG ate
in ate
Ġover write
ĠOper ating
ig er
s ys
ĠM er
ian ces
amet er
c re
st able
ĠPro position
it z
ĠIR C
Ġb all
Ġin ev
Ġdecom position
ĠL ee
) )
in ated
Ġro gue
ĠN essus
Ġar row
Ġ5 1
W ith
ĠI E
Ġenc oder
Ġeng aged
Ġterror ist
Ġforward ed
ist a
Ġtrigg ering
Ġheur istics
ir ty
Ġas ynchronous
Ġproblem atic
ĠU C
Ġp ent
Ġagre ements
Wh ile
Ġpow ers
Ġpat ent
Ġ1 50
Ġcolle ge
Ġs on
Ġstandard ized
ĠC opy
n es
ĠRes ource
Ġhas hing
Ġcalc ulations
ele br
Ġmarg in
Ġadopt ing
ĠInst agram
de v
ĠH acking
Ġblack list
ĠFin ancial
Ġconven ience
R U
S ystem
Ġre nt
es c
Ġaug mented
ĠF ind
Ġden y
al ities
pat ched
ĠAssess ment
Ġinvest ments
Ġ8 5
Ġen emy
Ġtell ing
Ġlock ing
Ġre jected
Ġrout ines
ĠBrow ser
Ġind ication
D L
Ġrel ating
Ġund es
Ġtrans lated
Ġrece ivers
in ator
ĠV o
Ġpred icates
ĠL ight
ol ic
Ġdise ase
ĠE ns
Ġar ms
M od
ĠBat man
ĠProcess ing
k a
Ġhar vest
Ġfor k
ch arge
ĠBas ic
id el
Ġconvers ion
ĠCPS s
Ġ4 7
liv ious
ĠR P
ĠM aster
ĠSc he
Ġplug ins
ul i
ĠSim ple
Ġpost ing
ĠKnow ledge
Ġcalc ulus
Ġpost er
K D
ĠInt ro
Ġinfer red
ast ers
ang le
Ġar rive
Ġrecon f
Ġpure ly
Ġdep icts
ell man
Ġw idth
con str
Ġvis iting
Ġuser names
ĠEd ge
ĠR A
Ġph rase
Ġfor cing
Ġqual itative
Ġarriv al
ĠLink ed
Ġnor ms
AL L
Ġretrie val
O s
Ġcontribut ed
Ġpre t
Ġexam ination
ĠP et
b i
Ġanalyz es
Ġincent ive
" ).
Ġpuzz le
Ġdis gu
Ġtermin ate
ol ec
ĠClass ification
i ating
Ġproportion al
Ġc ited
ĠT es
Ġreg istr
Ġimm une
ĠT ex
Ġgu y
Ġg aming
f old
an i
Ġbreak s
Ġover load
Ġdiff usion
Ġpoint ing
Ġfill ed
ĠT PM
Ġaffor d
ĠP ark
Ġ4 9
ĠRe v
Ġgrad ually
ĠFire Eye
ĠL ong
Ġcyber attack
ĠWh y
om pass
p urpose
Ġren der
Ġcorrel ations
igu ous
th reat
Ġaug mentation
Ġoff ices
Ġun seen
im ination
Ġwor ms
target ed
ic ians
Ġschedul er
Ġreferen ced
unt u
int on
Ġwork force
ĠEx ecution
rop ri
uris d
or age
id ge
raz il
Ġfe es
Ġinvestig ators
ant ly
Ġsatisf action
Ġincorrect ly
Ġdeem ed
ethe less
b ug
ĠPat tern
Ġinitial ized
and a
on der
Ġed iting
ĠJ ac
Ġt exts
Ġbu ying
Ġconf ident
Ġcr isis
Ġestablish ment
Ġesc ape
Ġinstru mentation
Ġb ag
Ġgeneral ize
Ġavoid ed
ĠWord Press
Ġ5 2
ĠEx pl
ĠAdmin istr
Ġlicens ed
G o
Ġpl ants
or gan
Ġb order
Ġrel ate
Ġscan ned
ĠEr ror
Ġcontr ad
Ġc as
4 01
Ġinter connected
i ary
Ġacceler ation
Ġs ides
ĠA ward
Ġc elebr
Ġtri p
Ġserious ly
ĠP y
S E
ĠPart y
ĠMir ai
Ġb odies
ĠRec ognition
Ġbuff ers
Ġrating s
ĠâĪ Ĵ
re al
ĠCI A
Ġpseud onym
Ġconserv ative
it als
ĠP OS
Ġaddition ally
Ġarrest ed
Ġelect ions
Ġc aching
ĠOpt im
Ġinnov ative
Ġrecur sive
N ame
Ġissu ing
Ġpl acing
ĠH am
il le
ĠB urp
Ġunt argeted
Ġsynt act
ad v
Ġsc oring
ĠE arth
ile ged
Ġfil tered
ĠP D
Ġpreser ved
Ġdram atically
Ġcapt ch
Ġf li
ater al
est ic
Ġfeder ated
ĠT TP
ĠS al
Ġbe am
Ġfl ip
Ġalong side
Ġsnap shot
Ġ ip
on ed
ĠE ss
Ġopin ions
ĠF ort
Ġsh oot
Ġindistinguish able
ĠAng el
Ġpr one
ĠP ers
Ġsub stitution
Ġch art
Ġatt end
O ur
Ġcon ferences
Ġinv oke
c ost
ĠD ay
Ġdisc ret
Ġsurve ys
ess age
AT A
Ġlaw su
ĠBuild ing
Ġor ient
Ġperm its
Ġbus es
ĠO ften
ĠCV SS
Ġax i
ĠB ad
Ġintr ins
Ġident ifiable
A t
Ġdam ages
ĠE ast
Ġlif ecycle
u pp
Ġreser ved
ĠC ard
Ġus eless
ro cess
Ġimp ose
Ġpreval ent
We b
ĠInd ian
âĢĶ âĢĶ
Ġdomin ant
Ġundet ected
Ġcomm od
ĠMat rix
Ġun encrypted
ĠPl an
ĠPC s
Ġaccount ability
Ġseem ingly
Ġjoint ly
Ġy es
Ġtr ail
ĠI de
am i
Ġfix ing
Ġreach ability
Ġactu ator
ĠN ash
ĠVari ous
Ġ20 21
p ow
id a
Ġexchang es
Ġsubs ets
ĠCarl ini
c asts
h onest
Ġsh ot
Ġre vers
Ġdev iations
Ġrespond ed
ĠDR AM
C T
Ġview ing
Ġs ing
A uth
f ee
ĠD I
Ġsuppl ied
Ġph ilo
Ġcolle agues
Ġsh ar
ĠB razil
Ġunc lear
Ġt or
ĠDown load
Ġ199 5
Ġg lass
Ġput s
Ġtamper ing
Ġab ilities
Ġcum ulative
ĠSh adow
Ġsignal ing
Ġclos est
Ġdes ire
Ġpractition ers
ĠR y
Ġan ch
Ġlocal ization
ĠS qu
Ġwalle t
Ġp et
Ġlink ing
Ġsound ness
Ġ ub
Ġinv is
conf ig
ol er
Ġal igned
ari an
U LL
Ġfault y
19 2
Ġconver ge
Ġmisclass ified
Ġrel ates
C y
Ġhol es
ure au
t rivial
ur ate
Ġlabor atory
B l
Ġparticip ation
Ġpos ed
Ġconc aten
Ġpoor ly
m o
O r
ĠA G
og en
Ġdistill ation
ĠOper ations
Ġ199 6
ĠAd am
ĠUs ually
12 8
d em
Ġsupp ose
1 10
st at
ol ation
ĠV alid
ok es
Ġer a
Ġmitig ated
Ġreason ably
f ol
ĠRe ference
Ġche ap
Ġenc ompass
ger y
Ġpar agraph
Ġcensors hip
Ġexcl usive
Ġpropag ate
ĠMed ium
C II
ĠI ll
od ers
Ġpersist ence
ĠShe ll
T ime
Ġiter atively
ĠA UC
Ġquad r
ĠQu ant
Ġax is
Ġbul k
Ġiniti atives
Ġclass ifying
ix el
Ġj urisd
Ġsex ual
ĠIm port
Ġcompr ises
Ġcre ative
ĠCa rol
ad er
ide o
Ġmanif est
Ġapplic ability
ĠAC L
Ġ5 4
Ġlook up
Ġretur ning
us ers
ĠLab s
ĠC E
ĠPer haps
Ġco vari
C ry
Ġstop s
Ġdifficult ies
Ġindirect ly
Ġs aving
ĠW hether
Ġont ology
ĠC ache
ĠJust ice
ĠO K
Ġinvari ants
ĠVal ue
ĠC SS
Ġphys ics
ĠTex as
li ament
lo ss
Ġwas n
Ġfundam ent
ĠPro b
Ġestim ator
ĠSt ill
Ġprem ium
pect ives
ĠM and
+ +
ĠPerson al
k top
Ġinstru ment
Ġeffic acy
Ġem it
ĠG UI
ĠSM TP
h igh
ĠP T
Ġc ached
ain s
ĠSams ung
w an
ĠC ount
Ġencrypt s
com plete
Ġrespond ing
Ġd ash
Ġconst ants
ĠDiff ie
Ġus able
ĠUn ivers
j s
ĠW agner
Ġrefl ection
Ġassess ed
Ġv ac
Ġalloc ate
us r
Ġr ul
Ġbur den
Ġestabl ishes
Ġwar rant
ĠWik ipedia
Ġpair ing
( ).
at ile
Ġevic tion
ail ability
Ġcommit tee
u an
ĠInter face
Ġunder t
Ġor th
Ġt ips
ĠSm ith
Ġk m
g ot
Ġbring ing
Ġl attice
Ġapp rec
ĠJ ack
Ġwork station
ĠB ro
il s
r isk
Ġw oman
Ġload er
ĠB ern
ĠATT ACK
Ġsurvey ed
Ġrele vance
âĢ ĺ
k its
Ġharm ful
V er
Ġ 000
vious ly
or ge
Ġneighb oring
Ġref inement
our s
** **
ĠInd ex
B e
Ġthe ories
ribut e
ĠH ol
Ġscam mers
Ġconsequ ently
R B
Ġresist ant
ĠDat aset
25 5
Ġd ub
Ġjo ined
ĠCol le
Ġra ises
ĠH aw
Ġcre w
Ġoptim izing
Ġalleged ly
Ġswit ched
im um
Ġautom otive
Ġsee ks
qu art
ĠEduc ation
x i
C rypt
T V
o vers
ĠB BC
ĠG A
Ġem b
Ġproven ance
c lick
ĠUnder standing
Ġsh ip
ĠH ong
Ġaltern atives
F P
Ġscr atch
ĠEx isting
err or
Ġhone ypots
ĠG P
Ġunc over
com mon
Ġk id
ĠC ur
L og
ĠLi u
re f
con cept
Ġhyper parameters
Ġtun ing
ĠAct ion
Ġviol ating
Ġperman ent
ĠF PR
Ġinterv ention
ĠSt reet
Ġfound ed
ĠE V
ĠAfric a
ut orial
gener ated
Ġnot ify
ĠCont inu
F W
Ġp ython
or ney
Ġcomplement ary
M C
im p
d rop
Ġvis its
Ġh ous
Ġa pt
Ġdecre ased
h an
um ption
er ve
ĠPack et
Ġbott len
ĠA ff
ĠN one
Ġin equ
Ġimplicit ly
Ġp lease
ĠC red
Ġdeliber ately
Ġincre ment
Ġdeleg ation
AR D
Ġrece ipt
Ġlo ose
ĠFigure s
P ad
cent ric
Ġdemonstr ating
ĠHist ory
Ġult imate
Ġd ummy
G E
ith ub
Ġprepar ation
Ġsummar izes
Ġexceed s
Ġextr acts
ĠT er
ĠS ensor
ĠCh ris
Ġexp osing
Ġt ens
Ġf if
par ts
ĠFranc isco
Ġcomp ressed
Ġmis conf
Ġdeliver ing
Ġ5 12
Ġpartition ing
Ġb ed
ĠSh ort
ĠAre a
Ġpos es
Ġisol ate
k i
Ġenfor cing
ĠExplo it
Ġexecut ables
Ġdelay ed
ang ing
Ġdestr uction
resp onse
Ġcompet ing
Ġsuggest ing
Ġremed iation
ature s
Ġunique ly
Ġcont rary
ortun ately
Ġport able
loc ated
ĠC irc
Ġnon interference
Ġsp in
Ġsto pping
Ġemphas is
12 9
Ġprov es
Ġsearc hed
l ength
ink ing
Ġrepos itories
Ġcontinu ing
ĠAz ure
ĠB ill
Ġkernel s
c ision
Ġmys elf
Ġestim ating
Ġout line
d ered
Ġun ion
Ġs orts
Ġk its
ĠUNI X
Ġen orm
un ks
Ġsome body
Ġf ly
ĠN map
P oint
Ġoptim izations
Ġz ones
Ġid le
itect ural
et te
Ġaccommod ate
Ġne arest
Ġvot ers
ent ropy
Ġfeel ing
D s
L o
l ay
ĠA uth
Ġintern ally
ĠP ress
Ġcoun ting
Ġda emon
Ġle af
ĠAmeric ans
ĠEm ploy
Ġwhit el
ĠD F
O B
Ġvari ed
Ġt ank
he ck
os c
Ġconve y
pt ic
ĠD ocker
AA AA
Ġm ine
ĠTes la
I EC
Ġfavor ite
ĠW anna
ĠW ide
ĠLast ly
Ġmanif old
Ġboot str
Ġwith dr
Ġabs or
Ġ19 70
Ġpriorit ize
Ġdrop out
ĠDa ily
Ġincent ives
Ġpre ference
Ġregard s
Ġ7 2
su pp
Ġspeed s
Ġtrustworth y
ĠSaf ari
y al
UR ITY
Ġs lic
. -
ĠO l
ot o
av ed
Ġpubl isher
Ġset tle
bu ild
at ivity
Ġjud ge
et ies
ĠS AT
Ġby t
ĠRem ember
Ġemphas ize
Ġhun ting
ĠA bo
ĠM E
Ġtechn ically
b g
ĠInc re
HT ML
ĠA L
g ov
Ġmonth ly
Ġlapt ops
Ġv ent
Ġro ck
sc ore
Ġcan cer
UR e
act iv
Ġcorrect ion
Ġle aking
Ġor chestr
C o
Ġan c
al yst
Ġadd itive
ĠR ub
z i
Ġevalu ates
empor al
m atic
Ġexpon ent
P al
Ġske w
ĠT P
Ġtrans it
Ġpred icts
ber ry
Ġcall back
Ġfil ename
Ġd rast
ad ays
Ġvers a
O V
Ġinvent ory
ĠM ode
Ġcon stitute
ĠTr usted
L ine
ĠGu ide
pro of
Ġsuggest ions
ĠPro p
w d
Ġrespond s
ĠL u
Ġcopy ing
Ġwe alth
Ġs ch
ĠM iddle
ast ro
Ġspec ially
ĠCent re
e ven
ĠD OM
Ġinf eas
Ġweb page
Ġ5 7
Ġge o
ĠFIG URe
Ġs hed
Ġdiscover ing
Ġhorizon tal
ĠS L
z y
chang ed
Ġsh ield
Ġlabel ing
Ġexpect ation
en n
Ġinterview s
ĠAdmin istration
B ut
ĠD ou
Ġoverl ay
ĠSet tings
Ġsche ma
Ġdimension ality
ĠN or
ĠEC U
Ġbackup s
ĠLinked In
Ġh at
ĠV LAN
Ġf og
Ġacc ord
Ġass emb
ĠSnow den
Ġs we
ĠF ield
Ġcirc le
g l
o j
ĠAS R
omb ie
ĠAuthor ity
Ġst abil
Ġcompet itors
D OS
ĠSum mary
Ġinvest ors
ĠP L
Ġrigor ous
ĠV ector
ĠD A
Ġprom ise
qu ality
u id
Ġinc red
Ġstat ically
Ġmag ic
h ark
U RE
Ġincons ist
Ġorigin ating
ĠJac ob
Ġout liers
Ġnot ably
Ġver ifies
Ġperm utation
S ome
Ġfeature d
Ġpers pectives
ĠCoun ter
ĠB et
Ġprior ities
T ype
ect ive
Ġent ers
Ġconsum e
3 00
ĠK ernel
Ġappropri ately
ĠC N
Ġpredict able
Ġlock s
ĠT ake
n ov
Ġfor wards
Ġmod ifies
Ġinterpre ter
Ġaim ing
Ġb ought
Ġm olec
Ġpract ically
ĠU nt
Ġsub graph
Ġlear ner
ĠRF ID
Ġarr ays
Ġg est
Ġ199 7
H ellman
Ġpro jected
ĠT EE
O b
Ġsp ir
onal d
ĠRe LU
ap ore
ĠB al
act or
ĠF iles
Ġwatch ing
Ġbroad ly
Ġcharacter ization
Ġcar ries
Ġin verse
is ec
Ġcompos ite
Ġbrid ges
Ġdec lass
T T
Ġsupp liers
Ġdeb ate
pl ane
ĠConf iguration
Ġskill ed
Ġlater al
Ġmag azine
Ġrec urs
ĠGood fellow
Ġdis put
Ġcloud s
ĠPol ice
Ġbus y
Ġbre ached
ed y
Ġshort est
f s
h y
D T
Ġcomple teness
Ġpl aus
ĠRequ ire
ĠNorm al
Ġcomprom ises
Ġdist r
Ġcat alog
sh aring
ĠIn cident
F ool
ĠM ass
ĠB est
Ġfair ness
Ġassign s
ĠS ys
Ġar ises
ĠUb untu
ĠDH CP
uc l
ĠOb ama
Ġf t
ain ted
Ġcraft ing
Ġ !
Ġmis be
Ġregion al
Ġcult ural
ri ber
Ġback end
201 0
w ood
Ġdef ended
un te
S G
Ġfunction ing
id ay
ĠF ortunately
s en
Ġanaly se
on ing
Ġab ort
apt ive
Ġgroup ed
Ġhot el
Ġin acc
Ġpack ed
pp ers
Ġtro ub
i h
Ġosc ill
Ġemploy ment
ĠSecond ly
Ġsimultane ous
Ġtempor arily
Ġaggress ive
ĠCertific ate
ĠS H
m ic
is ms
Ġat oms
Ġf etch
Ġtri als
ĠR SS
Ġem ulation
4 00
Ġaug ment
ab et
crib ed
Ġexponential ly
Ġfeed s
ul ators
ĠSI EM
Ġdec iding
Ġours elves
Ġaccept ing
A fee
Ġassign ing
Ġenc aps
Ġsynchron ous
Ġdistingu ishing
ĠCommun ity
Ġb og
Ġm ature
ĠR eli
Ġfr ustr
ĠM ANET
Ġdec oder
Ġautom aton
ires hark
Ġhard ening
- >
Ġwr app
ĠS ections
ĠWanna Cry
ĠLook ing
Ġfab ric
Ġa f
ĠU t
ĠBe yond
Ġir relevant
Ġmot or
ĠMonitor ing
Ġprof essor
def ense
Ġrest aur
Ġquery ing
Ġsome how
Ġout er
ab ot
omet ry
Ġcont ing
T hen
Ġaccomp an
Ġsit ting
ĠRel ated
ĠCle an
Ġw ake
l aw
Ġfollow ers
Ġpol ar
Ġfrag ments
Ġsys call
Ġaltern ate
Ġinvis ible
Ġlem ma
F s
ĠM echan
ĠS ov
12 6
Ġavoid ance
AN S
oc ab
in ct
ill ing
og onal
I E
less ly
ĠR ansomware
Ġcharg ing
ĠC lick
Ġli ability
Ġrad ius
s ized
co very
Ġub iqu
Ġfin ish
Ġb ases
Ġannounce ment
Ġtrain s
ĠSing apore
ĠColle ge
ĠRich ard
Ġneur on
app ropri
ĠE arly
ĠComp anies
Ġactiv ate
Ġsupp lement
Ġinteroper ability
Ġ8 8
ĠLog ic
ĠS elf
Ġelse where
ok ed
av irus
Ġp ing
ĠJP EG
it le
Ġoverhead s
Ġcompar isons
ĠR ES
ular ly
in put
constr ained
ĠN C
ade qu
Ġinflu ences
ĠH D
or se
Ġadj usted
co ins
ĠOut look
P ass
Ġalign ment
Ġl ights
Ġ5 8
ac er
ĠCle arly
Ġdemonstr ation
ĠEx ternal
Ġhom es
sc ript
Ġless ons
201 1
il er
Ġ9 4
Ġneut ral
ĠB ureau
Ġinfeas ible
Ġfl uct
ĠF ull
Ġprob es
Ġ2 50
Ġd ivers
Ġmain stream
S ince
ĠC amp
O O
Ġout bound
ond itions
Ġhapp y
Cont rol
ĠM us
Ġs lice
Ġtim eline
ĠCh ief
A cc
Ġrecip ients
r s
Ġamong st
ach ine
ĠHom eland
Ġtransfer ring
S et
ĠIn jection
Ġintercept ed
Ġwhe el
Ġsub domain
Ġmet al
rom ag
Ġw ired
k o
ĠC lo
Ġtick ets
Ġrefer ring
ĠAS CII
Ġme ets
Ġ9 3
Ġexhaust ive
M e
b row
Pro cess
ĠAustral ian
M T
Ġmitig ations
sc reen
ĠIC T
os ec
ious ly
Ġfail ing
Ġdupl icate
Ġover fitting
Ġpar se
S EC
ed ge
at o
ĠMod els
M icrosoft
AC E
brid ge
Ġapp oint
Ġh ate
SA C
Ġprompt ed
S tr
Ġte aching
ĠIntegr ity
Ġrel ig
ĠJS ON
Ġ( ,
Ġden o
Ġsu ffic
I X
Ġ Î
ĠInit ial
Ġgram mar
ivid ual
Ġteac her
ĠM ex
p ages
Ġch unk
Ġpr inter
id ity
Ġm ur
Ġs ong
om atic
ĠB ug
ĠL in
Ġcrypt osystem
M ore
A fter
igh ter
ĠAt l
Ġunav ailable
Ġto w
Ġsk ip
bal anced
Ġover look
ĠCh o
Ġappear ing
ĠS EL
Ġrot ation
m ath
Ġillustr ation
E SS
Ġtrade off
idel ity
Ġdec ode
ĠMark et
Ġcommunic ates
ĠJapan ese
ĠP erm
ĠUl t
ĠG al
Ġbi ometrics
' ll
AM E
ĠB road
s l
ĠI O
Ġmor ning
ĠNot es
t un
ĠS ize
N ote
ĠThreat s
an onym
ad ian
a round
Ġess ence
Ġte ach
Ġpro duc
ĠAS LR
on avirus
Ġdiscard ed
Ġexplain ing
Ġdo ors
Ġrel ational
ad min
ow nt
em p
Ġcons pir
Ġbal anced
Ġmeet ings
ol f
ĠE ric
Ġmisle ading
Ġp ri
Ġmount ed
Ġpres um
Ġhosp itals
Ġperson ality
Ġpredict or
Ġdimension al
Ġst reet
Ġelabor ate
Ġkill ed
oc ks
pat ible
ĠAnaly tics
ĠEss ential
Ġha ven
Ġexfiltr ation
Ġobst acles
d i
Ġdom estic
Ġincorpor ates
Ġge ographic
Ġm akers
Ġsitu ational
ĠSol utions
ĠEm erg
Ġassist ant
an o
ĠA ware
Ġdetect ions
ĠVol ume
ĠT A
Ġam az
ĠL os
ĠW all
Ġnavig ate
s afe
Ġtr icks
ĠFl or
t witter
Ġx i
ik i
Ġsu ited
form at
ĠCh ange
Ġbyt ecode
Ġrep et
Ġd ict
S p
Ġpr icing
Ġout age
ĠR OC
ĠT ensor
ang er
Ġspeak ers
ĠF ail
ist ication
Ġtime out
pro file
ĠF und
C M
Ġsh op
Ġderiv ation
com merce
t ons
Ġmalicious ly
T otal
Ġmaxim al
Ġste gan
Ġob livious
Ġstatist ically
O ps
ĠD iv
or ig
Ġcons cious
ĠMart in
Ġhab its
ĠL P
str act
ĠKn uth
Ġsu pervisor
Ġorient ation
ĠK B
ĠLo ad
y c
ac ity
Ġmiss ions
Ġproceed s
Ġconv ince
ĠT al
re nce
m n
Ġsub stit
Ġvis ually
Ġconstit utes
Ġunp redict
ĠSw ed
det erm
Ġrev olution
tic le
ĠPLC s
it ter
Ġmem or
ĠMc Afee
Ġun changed
Ġabsolute ly
ĠR OP
Ġappl iances
Ġorigin ated
Ġintegr al
ĠCW E
Ġadvertis ement
ile vel
t or
ĠDem ocr
Ġpar ser
Ġg ang
ĠLine ar
Ġun protected
Ġtim ed
ĠIsra el
b ul
Ġp ic
Ġport al
ĠU RI
Ġdele tion
Ġsu ic
Ġgre y
' t
Ġd il
Ġb unch
Ġint ra
ĠM i
Ġenorm ous
h ome
ri a
Ġfiles ystem
ress ive
Ġ9 2
Ġrepro duce
ĠS and
th read
Ġmat urity
Ġfol ders
ĠW il
r ating
ch o
ĠW S
ust ic
Ġinte gers
Ġon ion
ĠV i
Ġanalog ous
Ġs ought
Ġcommunic ated
Ġpl enty
Ġconv ention
{ \
Ġstation ary
prop ag
Ġclo sing
ĠM T
Ġli ber
Ġencl aves
Ġcop e
act ively
m en
ĠV ision
ĠWork ing
Ġtimestamp s
Ġcoll isions
c a
d ump
Ġperform ances
Ġspect ral
ĠFirst ly
Ġvol unte
Ġinstall s
Ġshif ted
ĠAr t
Ġsuff ered
Ġsk in
Ġfall ing
C omp
Ġphilo soph
Ġn aive
ĠIntern al
Ġn ond
ill s
Ġiniti ative
ĠE S
Ġreconstruct ed
Ġtraject ories
gener ation
Ġsub net
Ġins urer
Ġvisual ize
n n
ĠS ingle
Ġinser ting
Ġcomp ound
Ġpro ver
ĠA Es
Ġmisle ad
Ġmail ing
Ġbl ank
Ġinter fere
Ġdo g
Ġnom inal
d oc
ĠCr ime
Ġmal e
ĠKe ep
Ġoblig ations
Ġany more
Ġbird s
ĠK ong
u ed
f requency
ig ma
Ġcount ers
Ġany way
F E
Ġelimin ating
ane ous
s qu
ir t
Ġover r
Ġstrong est
priv ate
ĠR NN
Ġincre mental
ĠGe org
Ġre training
sp eed
Ġstrength s
Ġrem ind
Ġcommod ity
ff ff
Ġthem e
pos s
ĠT s
Ġmiss es
ĠPC A
Ġviol ence
Ġtheore tically
Ġmar ks
Ġout dated
Ġfriend ly
Ġgener ations
Ġdisc our
= "
Ġcounter parts
ĠFore st
ar ith
Ġminim ization
riv al
Ġc art
it ous
Ġint ensive
F ace
Ġed ition
Ġ7 8
ĠGr id
gr id
Ġprotot yp
ĠRec e
Ġun related
Ġbreak point
ĠRad io
Ġre ass
Ġrel ied
il st
Ġsafegu ards
Ġo mitted
Ġreview ing
s ection
ĠS ar
ĠN um
Ġhab it
re ement
Ġsurpr ise
Tech Republic
ex ample
ĠE L
Ġexist ed
ĠKe vin
ch ar
ĠF ac
g ame
r ases
Ġinstall er
Ġwon der
Ġampl ification
irect ional
Ġcontribut ing
Ġscr ut
V iew
Ġinv ocation
Ġbr ands
Ġdele ting
AR PA
Ġtri ple
c d
Ġimpro per
Ġmin i
Ġt ape
Ġindic es
Ġent ertain
ist an
Ġavoid s
Ġs ac
Ġdistingu ished
C PU
ex plo
romag netic
z ens
Ġco ff
Ġh its
Ġport ions
ĠP eter
Ġline arly
ĠMin istry
O ut
Ġdeploy ments
Ġresol ver
label ed
Ġsubscrib ers
ĠStart ing
Ġd ownt
pre m
200 9
ĠLib rary
ro ut
Ġf le
Ġr ated
Ġprogram med
Ġlic enses
Ġacc used
Ġsoph istication
ĠB ur
ĠLike wise
Ġeas iest
Ġtermin ology
Ġexerc ises
sc ope
ĠSp am
un ity
bl ack
ĠP ubl
box es
Ġsur faces
Ġrepl ies
Ġexp ense
ic ating
ĠKore an
ser vices
Ġsubsc ription
Ġacad em
Ġrisk y
str ing
ĠSt an
r ange
A ss
Ġsynchron ized
B ot
Ġinser tion
ĠI o
and al
Ġun used
se arch
Ġcol d
ĠD T
ĠSim ulation
Ġdis abling
Ġt cp
m atch
iver se
ĠO WA
Ġflo ating
S e
ĠBI OS
az e
ĠAud it
Ġnormal ization
ĠPay Pal
ĠTL B
ĠH P
Ġ6 6
Ġcertific ations
Ġrele asing
ĠW estern
D NS
ĠE R
ĠStud y
Ġmic rop
ĠElect rical
ĠS ID
Ġbur st
n as
L ib
ĠAss uming
Ġaccord ance
b ird
Ġf re
U ser
ĠB ook
Ġland ing
Ġh al
Ġdut ies
ĠBe ing
Ġtransl ates
E ST
ĠProgram ming
Ġ199 4
ack er
ap se
ĠQ R
Ġflag ged
K B
Ġ1 01
p k
know ledge
Ġunc overed
par ser
ob ser
T H
Ġcalc ulates
Ġe arth
Ġsp r
Ġth umb
Ġblog s
Ġsusp ic
U p
Ġhaz ard
Ġconsum ing
c rypt
ĠTel ec
ĠD MA
ol a
Ġdraw ing
D N
Ġg iant
Ġang les
Ġfe et
Ġoverl apping
c ount
ag o
Ġinter ception
Ġeng aging
Ġha ir
Ġtact ic
ott om
ĠSk ype
cy ber
f ing
Ġde grade
] )
bo ards
Ġwar ned
Ġconclud es
Ġorth ogonal
m ails
Ġearl iest
ĠGe orge
Ġbi ases
Ġw ires
Ġcou pling
Ġsp ars
ĠR ight
Ġbl ur
a ro
ĠJ IT
Ġqual ified
be it
Ġenh ancing
Ġfuzz er
Ġbog us
ĠCh annel
Ġrepl aces
Ġselect ive
ĠGener ation
us ts
Ġaccur acies
Ġlack s
Ġnewsp aper
sk i
Ġmon ot
Ġear n
Ġcons olid
Ġhist ogram
Ġposs ession
Ġmill isec
Ġobser ves
ol es
pp ings
ĠL R
Ġevery day
man n
Ġpsych ological
AR E
Ġcamp us
ĠAc ad
ic ian
Ġst uck
N ot
s or
ast e
ĠN ET
Ġ( %)
Ġassign ments
Ġo dd
ĠWhat s
on ical
Ġs y
Ġ Ġ
Ġair port
Ġviol ated
Ġdisplay ing
Ġform ing
st art
ĠP lease
AP I
Ġhol istic
Ġtw enty
Ġfund ed
Ġannot ations
ĠH ash
Ġuna ware
pow ered
ĠGr ant
Ġincons istent
Ġp ace
Ġexpand ing
ĠSign al
Ġdiagn osis
Ġprint ing
ĠR B
Ġexc luded
D es
Ġab and
Ġobst acle
C r
Ġcorrespond ence
Ġbarri ers
ĠJ ud
ĠEnviron ment
Ġ6 1
Ġref ined
ĠPr im
ĠD ut
ĠExperim ental
v an
Ġsub t
Ġbound ing
Ġstat istic
ĠBo ard
Ġse am
Ġther mal
Ġ1 20
Ġfool ing
Ġv o
Ġhard ly
ĠK u
ind ependent
ĠP ut
Ġnot ified
Ġintrins ic
ĠW ireshark
Ġsucceed s
Ġo mit
" ),
G M
gram s
Ġra ising
Ġt utorial
yn c
Ġsuff ers
R AM
Ġend ing
F uzz
Ġroom s
Ġbas elines
ĠSol ar
ĠDef ender
Ġaccess ibility
Ġfacilit ates
ĠE N
Ġinterrupt s
ĠQu estion
Ġinn oc
Ġinform al
Ġgate ways
r as
Ġcritic ized
ĠS ession
Ġrecru it
ĠV an
N ew
Ġco al
pervis ory
Ġexhib its
if fer
techn ical
Ġb are
Ġwould n
Ġelimin ated
a ults
D roid
ĠE ucl
v asive
ad vert
Ġbarri er
err ing
ĠL TE
ĠTrans form
Ġcontribut es
Ġdem ocr
ĠK al
Ġmas quer
as i
Ġno ises
Ġas c
Ġfact ory
Ġexc lude
ĠG Hz
Ġtre m
Ġl uck
ĠRequ est
quart ers
D o
e b
Ġhar ass
Ġ6 8
ĠMy SQL
Ġdub bed
Ġwithdr aw
Ġbe aut
Ġf ounder
ren e
stand ard
Ġpay off
f ront
ap ing
Ġmix ture
ĠST L
Ġ8 3
Ġbal ancing
ĠY ear
Ġsav ings
Ġr id
ĠWhen ever
C V
Ġfor ged
ĠControl ler
Ġevolution ary
H N
ĠN LP
Ġjump s
Ġbuck et
Ġim aging
compl iant
ĠN E
Ġimperson ate
Ġredirect ed
ĠSD K
ĠThom as
Ġbo ards
r ific
Ġfor b
Ġbehaviour s
access ible
Ġdis ks
Ġscient ist
Ġin adequ
D DoS
Ġspec ulation
Ġimperson ation
Ġint entional
er ge
Ġerr one
Ġnecess ity
Ġgrow n
L ocker
M NIST
ĠMan ufact
Ġdisj oint
ĠMethod s
Ġal leg
Ġcontrol l
Ġoverflow s
ĠD EF
ion e
Ġfing er
Ġcrypt analysis
Ġquestion na
p ay
k aspersky
Ġdestroy ed
Ġreg ime
Ġauto encoder
Ġcoff ee
Ġexp orted
int e
Ġf its
ĠJ ose
Ġsoft max
Ġc od
Ġv ocab
f il
Ġw ishes
Ġelect ronics
ĠC CP
Ġab used
p i
ĠCNN s
struct ured
Ġformal ize
Ġmom ents
ĠCVE s
ĠA part
ĠCan adian
Ġtermin ated
Ġkeystro kes
m w
ind ex
Ġdis ag
Ġmicro phone
Ġp ir
Ġintent ions
oll ary
Ġsal t
m aster
Ġcorrel ate
ĠDocu ment
ĠImplement ation
B L
Ġco lo
ĠL oss
Ġh ire
ĠPl ayer
Ġt ainted
Ġ6 3
ac cept
Ġst amp
Ġpool ing
Ġrestrict ive
ogene ity
Ġbackdo ored
Ġimper ative
k ernel
Ġre form
ĠF uzz
ĠE ll
Ġconsum ed
ĠR OM
Ġbr ight
Ġf ired
ĠCAPTC HA
Ġrebo ot
ul ary
aus es
Ġb esides
Ġpurch ases
ĠL ess
ĠD ie
ĠEcon omic
Ġsent iment
Ġbal lot
ĠOb viously
Ġep id
Ġmoder ate
ĠE H
ĠN ULL
Ġle x
ĠCrit eria
y a
Ġre str
pl an
Ġdrug s
ession al
po ol
S L
F O
Ġ9 1
p ublic
Ġgeograph ical
he m
Ġclin ical
z ip
Ġinc urs
Ġpur s
Ġtelecommun ications
Ġres ides
Ġro l
Ġsm ell
Ġcon vic
z a
Ġpow ered
Ġend ors
Ġoffic ially
Ġphenomen a
Ġansw ered
Ġposter ior
ĠE SP
ide an
Ġs lots
ĠT ues
Ġbe acon
Ġma ppings
B u
bre v
Ġprol ifer
Ġsnipp et
Ġbelief s
ĠNat ural
Ġpar king
Ġ7 4
Ġacknow ledge
p red
Ġmod ulation
f ire
ĠSt ar
Ġgre edy
Ġs abot
Ġadvertis ers
aud i
Ġh oney
Ġad mitted
ĠOver view
Ġ6 2
igure d
Ġun patched
ĠL isp
Ġrecover ing
Ġseed s
Ġcomm its
ile ge
ĠM PC
Ġmon etary
Ġread able
ĠL arge
ĠGate way
ĠM iss
Ġun stable
ĠSov iet
pass word
ĠUkrain e
IN E
ĠSt atic
Ġmov ies
om aly
pro duct
ĠN Y
Ġac o
ĠO B
Ġwork place
Ġpubl ishers
r ator
j acking
f irst
ĠQ oS
Ġrepl ication
Ġhom omorphic
s n
ĠC B
Ġmod em
ĠSu ite
Ġcl ub
Ġcl one
Wh at
a ver
ĠSn ap
Ġres ide
ĠL O
Ġrestrict ing
ĠCl inton
Ġanaly tic
Ġmaxim izing
Ġgr ants
Ġwalk ed
Ġmarket place
Ġge ometric
ĠWh o
ĠE VM
ĠV ista
ĠEC Us
Ġwhere by
Ġ8 7
ĠC row
ĠF C
ĠM DP
Ġpool s
Ġdo zens
Ġco ins
vari ant
i ates
Ġoptim izer
Ġtable ts
Ġmoment um
Ġg un
Ġaccident ally
ĠF il
Ġquant ization
ĠE NI
Ġprof its
ĠF N
ĠRes il
Ġinvestig ator
cept ibility
Ġd ad
P l
ĠJo e
Ġ ?
Ġsubsystem s
Ġback ed
Ġbet a
ĠConn ect
V PN
Ġal tering
Ġem ulator
ĠFP GA
asp berry
Ġund efined
ĠM ap
ĠNA SA
Ġt a
ĠSurve y
d y
m ain
Ġad mit
Ġvalid ating
Ġh ired
el le
Ġreal ization
Ġch unks
ĠThe ory
ĠM ix
Ġoccurre nces
ĠChall enge
Ġ8 2
Ġst y
ĠGu id
to ol
ĠTues day
Ġattract ed
Ġin qu
Ġcor onavirus
Ġfin ance
Ġmerg ed
ract ical
I CS
Ġj our
e u
Ġsol ves
Ġem erge
Ġdisc rep
ĠU E
ĠRep resent
Ġsub mission
Ġport fol
ĠC G
Ġv ig
st ers
P E
plo t
Ġw aves
Ġw el
ator ies
ĠEm bed
Ġprom otion
ĠSp e
Ġbe ar
Ġconstruct ions
Ġv ib
ĠMIT RE
ĠIntro duction
Ġcarri ers
ri ver
Ġenfor ces
Ġtool kit
e i
r ative
it led
Ġ8 4
Ġgre w
D bg
Ġexcess ive
ĠTechn iques
F OR
Ġquadr atic
g ree
Ġimper ceptible
empor ary
f all
ĠC ort
ĠL and
Ġpro c
ĠH E
Ġannot ated
Ġlog o
ĠMod ule
h at
Ġ7 6
ĠN VD
ĠGuard ian
Ġ5 9
ic he
ell er
at ility
Ġoverwhel ming
Ġtrans ist
ĠThreat post
Ġencour aged
ĠDet erm
Ġprotect ive
c ial
ob ject
N T
iv ari
Ġcontact ed
re lation
ult y
ĠP O
ac ific
S VM
Ġun bounded
Ġunint ended
Ġhand lers
ĠIP S
Ġ< /
C O
pro fit
ĠWhats App
Ġun limited
Ġfoot print
Ġsub station
Ġplaus ible
R M
Ġanten nas
B ay
Ġprefix es
s v
IT H
ĠSc ott
ĠAl ong
Ġtra its
Ġdynam ical
Ġsurpr ised
ĠAbo ut
ĠSEC URITY
ĠSt age
Ġbypass ing
ect able
ĠL ead
rep resent
Ġquant ities
L ist
ver ted
Ġsudden ly
Ġhealth y
ĠD RL
ĠHy brid
Ġ8 9
ĠH ACK
Ġp iv
ĠL ocation
Ġdat ing
p m
Ġw id
ĠReli ability
h oc
# #
Ġex tern
Ġsch ol
Ġformal ism
Ġrad iation
Ġfundament ally
ĠNort on
Ġprot est
" :
Ph ysical
Ġconf iguring
[ .
Ġn ested
Ġint end
pro v
um n
Ġent r
Ġcovari ance
Ġc oded
Ġ19 60
ĠFr ank
t im
Ġh iring
Ġco herent
Ġdis pos
Ġconspir acy
Ġtrans mits
Ġcryptoc urrencies
Ġadvis ory
ĠMad ry
Ġpr uning
ĠCyber cr
cons uming
Ġaud its
Ġpersonal ized
ĠR Q
8 00
Ġanalys ed
Ġgener ality
Ġtim er
v alu
ĠE s
Ġsum mer
iss ions
% \
ĠF ed
Ġcor poration
Ġrece ption
Ġacknowled ged
G en
ĠC ERT
ot a
Ġf iction
Ġtermin ates
ĠAb stract
Ġindex ed
v a
Ġcipher texts
Ã Ĺ
Ġche at
id able
A ut
P r
v ulner
Ġvehic ular
Ġforecast ing
su pervised
Ġemerg ence
ĠD AG
ĠAr ticle
Ġdisass emb
sec ond
appropri ate
g as
b oth
il der
Ġbeg un
requ is
OR T
Ġc os
Ġled ger
ĠM AT
Ġimp ed
Ġtrad itionally
C OM
Ġdel ivers
Ġlearn ers
Ġf lying
us ually
Ġgu ilt
Ġminim izes
ĠDan iel
Ġgr and
ĠM uch
t d
ber os
Ġcompr ised
Ġset t
ĠB ox
Ġatt itude
Ġoff sets
Ġarriv ed
Ġdev oted
b one
Ġpurch asing
ĠM ary
Ġcontrovers ial
k ay
In d
ĠStrateg y
F rom
Ġtrack er
ĠL ED
Ġbut tons
Ġpers u
In tern
ĠChar acter
Ġth in
ĠW al
Ġautonom y
ĠSo ft
Ġn s
Ġad ult
ĠOR AM
P o
Ġc am
Ġcre ators
Ġsp ons
ĠEC D
Ġindepend ence
Ġbi ased
ĠExp ress
Ġconce al
O NS
ĠD istr
ĠA k
am pling
p df
ĠMc C
Ġemotion al
ĠCS RF
opt imal
ĠB oot
ĠInt ent
ĠS ant
Ġpart ly
t ag
ĠD SS
is er
ul um
h r
Ġinter acts
ĠCom plex
Ġtag ged
ĠCon c
oc king
Ġweak est
ĠComp rom
gr ap
Ġhack s
ĠEx ecutive
Ġpre f
t uning
Ġstand alone
Ġcut ting
ĠGPU s
Ġd f
li ance
-------- --------
Ġ __
ĠEst im
Ġem ulate
ĠScen ario
f ly
Ġelect romagnetic
Ġhead s
ĠB ul
apt ers
G L
ĠA SP
ĠE P
ĠF S
ort ing
er ry
ost er
r ank
Ġoccasion ally
Ġsp okes
Ġren dered
ort ium
Ġaco ustic
vel ength
ĠF IN
WOR D
Ġinequ ality
ĠI L
ĠIP sec
Ġlog istic
Ġperman ently
ord ers
Ġ6 7
tt ed
Ġt ip
read able
it t
ĠTr ade
Ġtrem end
Ġcontin ually
c m
ĠT aking
Ġmult imedia
Ġterror ism
I d
Ġspars ity
ĠP red
ĠFeature s
IP AA
Ġ7 7
Ġinf ring
Ġex empl
ĠRem ark
ĠLi ber
) }
ĠVM ware
Ġadequ ately
Ġunder m
Ġar med
" ;
Ġderiv ative
Ġpenal ties
ar n
al er
Ġli qu
Ġblockchain s
ĠB C
aw ay
friend ly
Ġovers ight
ĠW ay
Ġ 01
Ġtun ed
Ġdep ict
amp ered
f acing
ĠW ater
ĠU X
ĠPh one
ĠG reat
Ġrecomm ends
Ġsurprising ly
Ġ6 00
Ġjud g
ĠB ound
Ġjo ining
Ġfil ms
ĠPre cision
Ġcasc ading
o op
Ġdam aging
pl it
Ġprogramm able
Ġdec ay
Ġconfir ms
iz ers
Ġ8 6
Ġthorough ly
Ġb orrow
Ġver ifiable
ĠIdent ification
Ġimp ractical
Ġexplo sion
Ġlog arith
Ġins iders
Ġp k
ĠApp s
Ġsplit ting
de vice
Ġwhere in
Ġaver aged
ap ed
Ġdeterm in
Ġequ als
Ġfor got
Ġalgebra ic
Ġtransform s
strict ed
Ġcompil ers
here nce
Ġgir l
n umber
p ress
ĠEd ition
Ġlawsu it
Ġcritic ism
ĠDes ktop
Ġgu ided
Ġdistribut ing
ĠIt aly
ĠOther s
t ech
Ġabstr actions
Ġ199 3
Ġcomfort able
Ġreported ly
ĠB IM
ick ing
Ġrobot ic
ĠOWA SP
[ '
a T
Ġpurs ue
Ġc ul
ĠM M
ia o
Ġo d
Ġhost ile
Ġpress ing
Ġdestr uctive
Ġsac rific
B E
ĠCont ext
Ġwal king
ĠInit ially
if ul
an ish
Ġscen es
Ġcontract ors
ĠENI SA
her lands
Ġdirect ive
Ġadv ent
Ġarriv es
Ġch a
oun ced
ĠEucl idean
Ġcle ver
Ġ8 1
Ġf ellow
s is
ĠM ond
Ġassert ions
r ations
Ġdi pl
Ġdiscipl ines
Ġinject ions
Ġcl ause
ot ions
h ots
Ġtalk ed
Ġunre li
Ġsyntact ic
ĠP op
Ġenumer ation
Ġdisturb ance
Ġlegis l
Ġself ish
y ou
ĠD rive
ĠRegard less
Ġst ood
ĠStr ucture
Ġubiqu itous
Ġt ie
ĠPre vention
Ġconflic ting
Ġhouse hold
c odes
Ġv on
Ġconf used
L ink
Ġcybercr iminal
ic ine
ĠRegard ing
S ecure
aby tes
Ġin efficient
Ġdissem ination
ph a
Ġconsist ed
Ġhighlight ing
Ġtu ples
rep rene
AS E
av as
ĠT TL
Ġcentr ality
Ġmac OS
ĠNon etheless
Ġspir it
P GD
Ġr ain
Ġup stream
Ġthough ts
ĠDeep Fool
Ġdrast ically
ĠF raud
Ġp ocket
ĠP K
IS O
Ġow ns
Ġem br
Ġmicrop rocess
Ġdisapp ear
l ied
ĠS audi
Ġdisadvant age
ish ment
I Z
ĠP on
Ġtroub les
Ġal i
ĠKer beros
Ġn aming
ivari ate
b es
i ang
Ġtest ers
Ġ7 3
N e
it a
Ġpres idential
ĠU sed
ĠT ree
ĠRo ad
Ġpus hing
Ġdist ract
ĠR ow
ost on
Ġtal ent
Ġdiscipl ine
Ġdec line
Ġbottlen eck
load ed
Ġformal ized
Ġconver ges
Ġpreval ence
Ġth r
ĠK E
C lass
Ġclo sure
Ġin version
ĠInd ividual
Ġcur ric
ĠIn sp
ĠR ay
G s
Ġcre ator
Ġshif ts
Ġwrapp er
Ġdec oded
Ġsuic ide
ĠP ub
Ġactiv ations
aut hent
Ġguess es
mal icious
Ġdevelop s
ĠNet herlands
Ġshif ting
ĠWr ite
ĠVer ification
Ġtop ological
el ect
ĠTarget ed
Ġstri ke
Ġpred ecess
ĠS F
Ġcan onical
Ġintegr ates
Ġiniti ator
Ġincur red
ĠVirus Total
Ġlab elled
Ġassert ion
sp e
Ġmut ually
Ġnumer ic
spec ified
Ġsh r
Ġliter ally
Ġanticip ate
ĠS ky
Ġvocab ulary
oper ative
ĠOffic er
Ġintrud ers
Ġpul se
ĠAnn ual
Ġterminal s
Ġd imin
ĠFlor ida
Ġt ester
t iv
ĠZ oom
Ġhand y
Ġdemand ing
Ġha w
Ġb old
Ġ10 24
Ġscal ed
ĠEst abl
Ġsniff ing
pt ive
ili pp
O pen
Ġalgorithm ic
ze ged
ĠAnd rew
ĠT ai
Ġspread she
end ers
ĠPar liament
ĠIn nov
Ġv oid
Ġoutl ier
Ġsl iding
Ġtit led
A ct
ve hicle
eng ers
ĠProf essor
Ġcred ibility
c loud
Ġb on
Ġscam mer
Ġs lo
it ations
ĠSc iences
Ġdro pper
Ġpropos ition
A gent
ĠIm ag
Ġworkload s
ur able
AP T
u a
Ġmer ge
ĠR af
D ec
ĠJ ones
S py
n an
ĠAfric an
Ġur ban
or ne
zeged y
ĠSecret ary
ĠC at
Ġeth ics
ĠS ep
SC ADA
Ġretail ers
ĠT ow
Ġb at
ĠL ou
R AT
Ġconcurrent ly
Ġt ies
wit ch
mer cial
Ġfa ith
Ġg am
ĠB a
ĠY u
Ġgot ten
Ġdam aged
Ġi i
Ġcrow d
Ġhor se
driv ing
ad vers
ĠSh ow
Ġprom oting
ip al
Y S
Ġsurv ive
ĠM Hz
Ġmotiv ate
L ock
ĠI ter
ĠT M
Ġdest inations
ĠSe qu
ĠDiv ision
ĠAss umption
ĠM arc
amb da
ĠN eed
init ial
Ġqu ote
ĠM is
Ġacqu iring
Ġ `
p ing
ĠWilli ams
ĠP V
Ġclar ity
Ġprev iew
Ġbro ke
Ġext ortion
ĠM att
ĠPh il
Ġt ang
Ġass ure
ĠMa jor
Ġdigit ally
h ou
Ġp od
Ġcounter part
Ġlik es
Ġcont ention
Ġunp ack
Ġwat ched
ĠWilli am
Ġev il
0000 0000
Ġf ell
ur ities
ĠModel ing
ĠIDS s
ĠR en
Ġmerch ant
ĠM itig
ke eping
Q U
ig e
ĠA ST
Ġthem es
Ġencour aging
Ġtable t
Ġmicroarch itectural
S pec
h i
ĠVir gin
' re
with out
Ġgu ards
ĠAutom ated
Ġen vision
am ples
Ġuseful ness
Ġph arm
Ġp ending
ĠP ent
o ft
rol ling
Ġmillisec onds
ĠO Auth
Ġjust ify
ĠL S
ch ip
Ġfif th
M ap
ĠMand iant
Ġpro actively
Ġnotice able
ĠT ay
ĠSM B
Ġstand ing
2 000
Ġregul ators
b on
Ġundes irable
Ġto ur
ĠSt orage
Ġin advert
ĠR og
Ġhol der
Ġexp oses
ex per
Ġevery where
Ġinnoc ent
Ġlocal ized
Ġlet ting
Ġcitiz en
dem and
Ġ6 9
W E
neg ative
Ġunpredict able
ĠB etween
Ġed itors
Ġwatermark ing
Ġco arse
Ġupload ing
Ġwear able
Ġexp ir
Ġcheck er
ĠJ un
ĠE D
so ftware
Ġdetect able
Ġre writing
) ]
Ġre used
j ust
ĠV ictim
Ġsn iffer
hel f
Ġsabot age
Ġb ands
ĠV ideo
Ġover written
ĠDistr ict
Ġpr on
O f
ĠMe asure
ĠAPT s
ĠDH S
ĠN OP
Ġsu perv
ĠP atch
ĠK im
Ġs aves
ĠRec overy
ĠBrow n
Ġemploy er
ĠP GP
Ġt une
ou ch
Ġasympt otic
Ġreg ulated
Ġkeystro ke
Ġb is
Ġbill ions
it an
Ġdis par
ĠMem bers
Ġi pt
Ġst ret
Ġredirect ion
Ġs sh
ĠRec on
ĠG h
ĠAccording ly
Ġdisc ont
cl ient
i ability
Ġp c
ĠB ru
Ġ ith
ĠCon tr
Ġterm ed
Ġcur sor
Ġappe al
ĠSte ve
gi ene
D et
Ġm m
Ġsim ulating
com ings
http s
ĠAct iv
Ġinadequ ate
Ġt ensor
u ous
Ġmention ing
ĠN IDS
look ing
Ġelect ro
Ġalle v
Cy ber
ĠA j
Ġs ight
Ġjud gment
Ġr ac
Ġorgan ize
ĠVo IP
Ġtact ical
ĠR ights
ĠSign ature
Ġhost name
Ġst d
Ġmathemat ics
o ys
Ġ( (
ĠC are
ĠM OD
Ġste ering
Ġcivil ian
Ġpop ulations
ĠAuth ors
ĠForens ics
Ġphot ograph
ĠExper iment
Ġcl imate
ĠQ KD
int ensive
ĠAct ivity
ĠCopy right
o cc
end ar
onom ous
Ġsevere ly
Ġdisturb ances
ĠK r
ĠW PA
ĠAss ume
Ġ) ;
Ġexpect s
mit t
ĠK re
ĠPartic ip
Ġv et
Ġhypothes es
Ġlight ing
Ġab brev
Ġprior i
ĠF M
Ġn u
Ġdis pers
Ġ7 1
ĠIn ception
e in
Ġpip e
Ġwork shop
m achine
T B
ent ry
Ġres erv
Ġuncertain ties
W r
in ent
Ġnot or
ĠJ on
Ġdisc ount
cal c
Ġacceler ate
Ġad verse
own ed
ath an
Ġwa velength
ĠDirect ive
Al though
ĠSel ect
ĠCrypt ography
Ġcompet e
ĠPo ly
Ġinvent ed
Ġas ide
Ġdece ive
Ġexplan ations
Ġs id
int elligence
ĠRun ning
ĠMed ical
iss on
Ġhand ful
Ġcompl aint
Ġpossess es
l arge
Ġa uction
Ġcomple tes
There fore
ĠR aspberry
est abl
ĠX en
Ġmir ror
F irst
Ġtrack ers
Ġsort ed
Ġtend ency
Ġpass ph
ĠZh u
ĠSec uring
Ġw ife
ro ke
me an
Ġmotiv ations
riv en
ĠC old
Ġst ays
Ġl es
Ġn m
Ġclean ing
oc ations
c raft
re land
Ġansw ering
valid ation
Ġre trans
ĠO p
o or
Ġcomple ting
ĠBe havior
Ġexpress ive
Ġsubject ive
ĠL D
Ġsatell ites
Ġjour ney
it ance
Ġtr aced
Ġdead line
Ġshap es
v ector
est ination
ĠD ARPA
Ġbuy er
t mp
ĠY e
ph ic
Ġst ub
Ġapp endix
Ġsa fer
Ġg ift
Ġth ick
ĠAl low
Ġf an
Ġapp let
ĠStud ies
Ġdeep ly
Ġbo olean
Ġinstru ments
Ġapart ment
ar ts
Ġtr uck
tr ack
ĠLL VM
ĠC Y
ĠPro ced
ĠCh ang
b n
Ġoper and
Ġbrow se
Ġalt ogether
t oler
ĠS und
ĠI X
Ġgraph ic
Ġglob e
ĠAppro ach
Ġcategor ize
ĠAc cept
n ote
Ġsemant ically
F V
ond itional
uc ing
Ġportfol io
ĠAngel es
ĠJ oint
ĠS ANS
Ġscal ar
Ġvirtual ized
Ġbud gets
engine ering
gress ion
ĠH ave
Ġshort comings
Ġinject s
Ġin ability
ĠRub y
ĠI reland
Ġsuccess ive
Ġtop ologies
c hen
ĠMod bus
Ġenumer ate
Ġreg ret
ĠJoh ns
Ġpreser ves
Ġimpl ant
Ġcrack ed
Ġfight ing
Ġbeh aves
ER S
agn ostic
r ick
Ġrepl icate
ĠHe art
Ġdescript or
ĠTrad itional
ĠMag azine
M on
Ġpass port
Ġmultic ast
ĠD VD
pro gram
ĠN FC
Ġsynthes ized
w hen
Ġrout ed
ĠT ri
Ġl ane
u ing
Ġequ ality
ĠQ ue
me ans
bre aking
avas cript
Ġpat ents
ĠDis covery
ĠTai wan
( ,
Ġprepar ing
Ġsp l
l ong
ĠS ynt
i ple
Ġdoct or
Ġtr unc
ad y
Ġdomin ated
ĠR ules
ĠH R
Ġfast est
r ons
Ġref ine
ĠSp y
Ġent itled
Ġsched ules
Ġwa its
Ġdown stream
Ġphot on
ĠPaper not
ĠReg ulation
O U
Ġp ione
Ġcompl aints
Ġresil iency
Ġremov able
are r
Ġshut down
Ġi Cloud
c am
ĠCom pl
Ġdut y
ĠIde ally
at z
Th us
Ġt ion
Ġsym pt
it atively
lo om
ĠAutom ation
Ġengine ered
Ġad ults
ĠSY ST
ĠI MD
ĠI F
Ġhe aring
ater ial
Ġhe ro
Ġanalyz er
Ġelimin ates
mem ory
Ġind uction
ĠDu qu
ĠCon cept
ĠM el
ĠG host
ĠM iller
Ġpair wise
Ġdrawback s
ur ious
Ġl ure
l am
Ġâ Ĩ
Tr ans
Ġvig il
Ġexperiment ally
Ġanch or
Ġsusp ended
Ġ ic
Ġ199 2
Ġpreser vation
R equ
ĠT X
Ġris ing
ĠF ox
p g
Ġup coming
ag g
Ġworkflow s
u i
Ġm esh
Ġb low
Ġshort ly
IT E
Ġtrad em
Ġb ars
y ers
Ġcompens ation
ĠS ir
form ing
Ġdeclar ation
ĠL ife
ab it
ĠL y
Ġprop osing
m m
s ur
s ince
x ml
ĠAC C
de velop
Ġinstant iated
ĠT en
KE Y
ĠPh ilipp
Ġpul ses
sec ret
h oot
sp onsored
Ġw alls
am ily
ĠEng land
Ġvis itor
Ġs un
ĠWhere as
Ġalph abet
ĠIran ian
ĠCam bridge
Ġrest ored
Ġtit les
Ġrecogn izing
Ġi Pad
Ġipt ables
ĠVII I
R ead
ĠReg ister
ser ies
Ġcomm ission
Ġconv inc
Ġign oring
ĠD ate
Ġmarg inal
le an
ĠC over
pr ising
In f
Ġres c
Ġguilt y
ou fl
AC T
ĠD ave
ĠC FG
ry ing
perform ance
ĠTrans actions
ĠS end
igg ered
Qu ery
Ġ7 9
Acc ording
act ed
Ġdash board
ore s
ri ke
Ġmac ros
Ġdedu ce
( '
Ġm il
ĠB ud
Ġdisconn ected
hip s
ĠStud io
< /
14 14
ĠGr ay
Ġsequential ly
âĢĻ .
Ġge ometry
Ġdev ast
Ġerrone ous
ĠSp anish
ic as
Ġinstall ations
ict ions
ĠT F
add ress
ĠSh are
12 3
ĠDo es
af ety
Ġtext ure
Ġuns igned
Ġret ention
poof ing
Ġd ream
ec e
ĠCarol ina
ĠGeorg ia
C omm
S ee
Ġin line
Ġaction able
Ġfluct u
Ġpropag ated
Ġwe aken
ĠT iny
Ġmult ilevel
j o
Ġprohib ited
t wo
Ġun pre
S ign
Ġbas ics
ĠB oston
c ache
Ġsp ring
Ġcollabor ate
ud e
onor able
Ġprob able
ĠG i
h o
en et
Ġat om
Ġemploy ers
> ,
Ġsp ying
N C
ony ms
ĠS up
Ġ==== =
w ik
det ection
u ent
ĠAn omaly
tr uth
Ġresp onder
ĠC amer
ĠB irth
ĠPM U
Ġbund le
m id
Ġbypass ed
gr icult
Ġth ro
Ġor iented
Ġdeterm ination
bu ilt
ĠJ ul
Ġampl itude
d ifferent
Ġt one
Ġunreli able
Ġar c
erm an
L inux
Ġleg ally
m ult
Ġfigure d
Ġtrustworth iness
Ġtheore ms
Ġanim als
ĠS ent
ĠM IM
E m
ĠV end
ĠTh ink
Ġwork stations
Ġper taining
ĠComp onent
Ġspam mers
Le aks
ĠAware ness
ĠStr ong
Ġreal m
Ġoptim um
50 9
Ġvol unt
Ġleg it
ĠReg istry
Ġsuspic ion
Ġsty les
Ġt een
cr imin
Ġsell er
Ġ199 1
ĠWSN s
ĠA NN
C ON
Ġinitial ize
ĠMo ore
1 000
Ġon board
ĠF ront
play er
ĠAutom atic
ĠS a
ĠH MI
ĠP oS
Ġjournal ists
Ġcrow ds
S ub
ĠF ake
Ġconsult ing
ĠRe ferences
d ep
Ġback bone
ĠMc D
ĠBi ometric
ĠMond ay
Ġred es
Ġscreens hots
ĠP I
ĠN ex
c ar
or atory
T CP
ĠTay lor
Ġphot ons
ĠV A
Ġmas ks
ĠRout ing
mark et
M o
s ky
ĠGAN s
Ġr ail
Ġdr ag
ĠC apt
Ġrev oked
P ER
ile y
in ating
sh ots
ĠF ix
ĠQual ity
SS EC
In st
reg ular
Ġdisp atch
ĠPe er
ĠIS BN
Ġconcent ration
Ġsubs id
Ġe gg
ĠC ook
lud es
ĠPro xy
Ġaccount ed
cl usion
Ġav en
Ġhop ing
Ġanticip ated
vert ising
ĠRec omm
ĠProf essional
Ġprov isions
Ġdiver gence
Ġun common
Ġf o
i encies
Ġapp end
astro phic
Ġsw ap
Ġconver ting
Ġhijack ed
P D
Ġlaun ches
Ġentertain ment
ĠJ im
Ġterror ists
Ġqu iet
Ġsub space
Ġla id
mon th
ĠD ense
im ilar
Ġmem ories
Ġrelax ed
ol ved
Ġass er
Ġin appropriate
Ġblack box
ĠPl us
it ate
Ġins pir
ĠA FL
Ġg ig
Ġsu pers
ĠSM T
ce an
ĠMay be
ĠInt elligent
ĠMex ico
= '
ra q
ĠD ish
Ġspot ted
Ġhead quarters
Ġta ught
oun tain
Ġquer ied
I B
Ġh int
T F
s helf
Ġcompr ise
Ġinter depend
Ġexam ines
Ġdiagram s
Ġoutl ines
ĠS K
valu ed
ĠV oice
Ġassoci ations
Ġmerg ing
Ġstate ful
Ġfi ber
ĠEvent ually
ist ical
Ġbroad casts
ĠG ro
Ġent reprene
ent ions
Ġpre requis
w ire
miss ible
ĠH IPAA
ĠPo ison
Ġmark ing
ĠAl liance
Ġmanip ulations
ĠD V
ct or
Ġgarb led
ĠM ur
Ġinfect ing
f ilter
Ġre write
Ġmat h
av al
Ġenhance ment
Ġobserv ability
ĠN ic
u f
d ue
k ers
Ġlog ins
hers elf
Ġun fortunately
ĠF ashion
ĠT ables
Ġle an
ort ions
Ġc m
ĠO C
ĠT E
Ġel li
ĠSN MP
ĠS ample
ĠZe us
L AB
ĠH ill
Ġhas hed
Ġc ust
ĠK L
C ERT
ĠS ong
all ing
Ġf reed
ĠUnivers al
ĠB inary
ĠThrough out
X iv
ĠO w
d el
ĠSen ate
Ġear ning
ĠTh anks
sc an
ĠNAT O
Ġorigin ate
ke ley
fact ory
n ode
Ġgrad uate
Ġacc idents
Ġfe at
Ġpenet rate
Ġlab s
Ġmicro code
Ġped est
ĠWik i
F urther
w ares
feren cing
ter ror
Ġhyper parameter
Ġsqu ee
Ġm iles
Ġcour ts
m akers
re port
pos itive
ĠI r
Ġphilosoph y
Ġheter ogeneity
Ġaccount able
Ġult r
propag ation
Ġinvest ing
Ġtext ual
ĠBack door
Ġslic es
end ment
bo ot
Ġv ar
ĠE cho
ific ant
ĠSp ain
Ġcompr ising
ĠConv olution
Ġed ited
Ġsock ets
Ġincred ibly
Ġsal iency
Ġb oss
Ġu pt
comp rom
Ġsp ray
Ġb il
Ġneg atively
Ġgovernment al
it ably
Ġthreat ened
ĠVer izon
Ġexperiment ation
Ġcont am
load ing
Ġextern ally
F l
Ġfill ing
ĠO h
O F
ĠMess enger
clo sure
ĠSem antic
Ġcompar ative
Ġph rases
ĠY ang
Ġamb igu
Ġche aper
ĠValid ation
ĠCh ic
ĠIT S
ĠDrop box
ject s
ĠRy an
V s
Ġobser vers
ed ing
Ġaward ed
ĠW atch
ic ies
ĠWe ak
Ġcoun ted
Ġacceler ometer
ur l
ety a
ĠDis charge
ĠHe ad
200 8
ĠConf idential
ĠA F
ĠP KI
Ġres ume
Ġneed ing
ĠÂ £
lo s
bal ance
K L
ĠN a
ĠCh ain
av or
omet ers
omet hing
Ġmaxim izes
ĠT C
Ġconv in
Ġdece ptive
Ġperipher al
ĠMS E
Ġcl auses
Ġlack ing
Ġdeclass ification
le e
Ġbit coins
ex cept
Ġsepar ating
ur a
Ġmerch ants
ĠI an
Ġsyn c
Ġartif act
ĠR oy
ĠCon str
Ġcollect ively
v ia
ĠUS D
Ġdiscrimin ative
Ġin bound
ĠPo isson
ser t
ĠAv ailability
J S
Ġprom oted
ad i
Ġminim ized
ab out
ĠM ob
ĠWh ich
Ġdev ised
ĠN TP
TI ONS
t i
Ġmodel led
ĠDet ails
N B
Ġcategor ical
Ġadjust ing
ĠP OP
ĠB EC
Ġprec a
Ġconver ts
Ġp lo
Ġlaun dering
pre ter
P er
Ġy ellow
N A
Ġg a
Ġimpl ied
Ġf al
ick er
ĠPl ug
Ġwh ilst
Ġsh ipping
Ġfor gery
l anguage
Ġt empt
ĠP ak
Ġin accessible
Ġcooper ate
ĠCon versely
ĠAP K
h our
Ġundet ectable
des ign
ugh ter
un ting
ĠJ SMA
Ġinvok es
ĠSpring er
igur ations
Ġund ers
Ġquestionna ire
Ġclock s
ec ute
ĠP RE
ĠP acific
ĠUnt il
ĠFor mat
ĠK it
110 9
Ġse at
al and
ĠCol or
Ġviol ates
ĠSEL ECT
Ġsubsc riber
Ġp aging
Ġretain ed
Ġpresum ably
Ġf idelity
Ġvan illa
Ġcent ered
Ġtransfer able
" );
ĠF ive
ĠMin ister
Ġannot ation
ĠDeb ug
Ġdisass embly
Ġcomp ress
ak a
ĠA MI
Ġinacc urate
re ate
Ġclass ifies
ĠS enior
b ots
i ative
P riv
f ocus
Ġstrugg le
ĠD EC
ĠT D
Ġconsult ant
ill ed
Ġw are
ig her
ĠFree BSD
Ġimport ed
Ġdis miss
es pecially
ĠQu ery
Ġc urrencies
Ġl ingu
Ġun iverse
Ġmix ing
Ġf ines
ĠEx cel
a uthor
Ġrepl icated
Ġsp onsored
ĠPl anning
ĠW u
th ird
15 0
ĠR i
Ġnon ces
Ġthreat ening
Ġreli ance
ĠAdd ing
Ġfeed ing
ĠTyp ical
Ġaccompan ied
Ġqu arant
gu ard
Ġdisrupt ive
b ow
sec ured
Ġtal ks
Ġprof itable
Ġ3 65
ĠBru ce
Ġrec urrent
Ġoverlook ed
un nel
Ġdiscont inu
Ġinform ative
Ġfl ips
Ġelli ptic
ur ies
oper ation
it ch
ĠI A
Ġz eros
ĠLab el
id en
ist ence
Ġpoly m
ccess ful
W ARE
ĠL as
ĠF act
ĠMet a
T est
Ġout standing
ĠM ilitary
Ġselect ively
onom ic
Ġclar ify
ĠT ab
ĠL E
at us
it tle
ĠSh ar
Ġmanufact ured
Ġlicens ing
Ġ( .
Ġdis honest
ad ec
ĠR ing
ĠSt ream
ĠDo D
Ġill um
OC K
Ġview point
Ġaver aging
Ġsol ar
ĠB SD
we et
ID s
ol ving
rob ust
Ġensure d
Ġinstant iation
ĠEssential ly
Ġminor ity
ĠG S
mod ified
Ġclass ifications
Ġadv ised
Ġd ies
g overn
Ġ( $
Ġde bit
ĠElect ric
ok er
ent r
Ġsucceed ed
ĠM V
Ġaxi oms
ens ing
R ank
ĠK h
ĠS aaS
ĠInvestig ation
Ġv en
S m
Ġhard coded
ĠSub sequently
ĠSh ared
ap y
ĠSer ies
Ġmis match
ĠD AC
ĠB ang
ĠSpec ific
ĠEst on
el d
Ġshould er
Ġto y
Ġprem ise
Ġimp ression
ĠEn h
Ġcalib ration
ĠFr iday
ĠEnc rypt
Ġsum m
Ġmask ed
s igned
Ġinc on
Ġinflu ential
Ġtransform ing
Ġvari ability
ĠAc qu
Ġstr ange
Ġbuy ers
ĠP ixel
b ank
ĠH idden
ĠIt al
Ġrat ios
Ġsub rout
Ġinfiltr ate
Ġbullet in
ĠFail ure
ĠPos itive
l arg
Ġsuppl ier
is tering
ĠP ear
Ġscrut iny
ist ered
Ġrev ised
) "
G ener
Ġgroup ing
Ġworm hole
Ġrest oration
ĠMot iv
et ration
ĠR a
p an
ĠI OC
ĠCh a
St ep
ic ode
ĠChic ago
Ġdisadvant ages
Ġsc ram
lo ut
Ġtheore tic
ann on
Ġp ays
Ġd ots
Ġpros pect
function al
s ome
ĠS out
st ud
ĠA h
Ġtr act
ĠF TC
Ġshe et
Ġair ports
ĠSim ply
ĠP ir
ĠF ar
ST R
Ġad ware
Ġshar p
Ġc md
ĠF requency
bl ue
ĠU r
d its
ĠS ector
Ġcustom ize
Ġsp ike
Ġp ot
Ġcat astrophic
enc oders
Ġstandard ization
ik es
Ġaccident al
Ġ um
pl atform
ĠAl most
20 3
Ġspecial ists
Ġroll ing
he tical
Ġres idents
Ġz ombie
Ġsuppl ies
ĠBob by
Ġprint ers
Ġgarb age
ĠJacob ian
Ġrestaur ant
ĠPer l
ĠR RE
ĠCre ating
ĠH or
Ġfol ks
ĠF ocus
ĠMat he
Ġapp ended
Ġrepresent atives
Ġhaz ards
Ġtremend ous
Ġporn ography
Ġsupp ress
Ġn map
ĠJ ob
n am
Ġl ag
Ġcounter fe
res olution
al a
ĠMon te
Ġt ampered
Ġblack lists
m ade
ĠS IP
Ġpl astic
Ġm yst
Ġout lets
ĠSet up
C urrent
ĠX e
Ġadvert ised
Ġadopt s
H ack
ĠG ames
ĠEas y
D AR
ĠB B
Ġbroadcast ing
ĠFore ign
Ġp y
Ġconcent rated
Ġexpress ing
Ġdepos it
Ġt f
Ġreg ulate
Ġsat is
he ld
ĠN ear
ĠOl ly
Ġl iveness
Ġdef ects
Ġroot ed
iz ard
ĠDish onorable
ĠStep hen
for ge
Ġw ip
us p
ĠN ations
Ġadapt ing
ĠRest r
Ġexplo res
mer al
ĠB in
back ground
add r
b log
Ser ver
Ġjurisd iction
ol ent
Ġcirc les
ĠCh ild
Ġlaw yer
ĠZe aland
ĠF al
T ext
Ġind uctive
Ġear ned
d ir
ĠN ig
Ġsp orts
Ġallev iate
I SP
control ler
Ġstegan ography
sim ilar
ĠT ax
Ġsu do
ĠHist or
ĠN AS
Ġshould n
ĠControl s
k ed
Ġatt ain
Ġen rich
ĠSch ne
o ch
Ġsem ic
Ġsw arm
Ġbill s
Ġcompet itor
Ġfals ification
Ġdiscret ion
Ġar ising
ĠG re
ĠP ict
tain ed
Ġr ub
Ġcoll apse
FOR M
Ġb ol
ary ing
in em
ĠM ember
u ke
Ġ herself
ĠE p
Ġcommerc ially
Ġdeal t
Ġ19 88
h us
ĠT w
Ġch apters
adec imal
ere x
Ġir is
ĠC TI
Ġout ages
Ġdeno ising
Ġlay ered
AR C
Ġh ops
ĠW at
Ġlog on
Ġpick ing
ĠLeg al
Ġgir ls
group s
Ġatt orney
sh ared
r ors
Ġun man
P P
Ġsp ite
Ġ19 89
Ġlo an
Ġevery body
ĠC ivil
ĠL td
ĠUlt imately
e vent
Ġe Bay
Ġinf erring
Ġnow adays
ic ator
Ġpartic les
Ġprovision ing
ĠContinu ous
Ġpre process
e ither
em ail
Ġtight ly
ĠOptim ization
o ffic
Ġprolifer ation
ve x
ĠN ov
Ġdownt ime
ch at
Ġsk etch
ĠI ET
Ġcategor ization
Ġf ish
Ġelect ron
Ġsp anning
ĠG n
b ash
Ġcan cel
ĠF ilter
ĠCons umer
ĠCT F
Ġd ashed
ĠForens ic
b ottom
Ġsur ge
ĠF re
orph ism
Ġdiag onal
av ity
Ġpred omin
Ġroot s
Ġrecord ings
==== ====
Ġconvinc ing
ĠIn v
dig it
) /
Ġreal izing
Ġtravel ing
lear n
Ġaccum ulated
Ġexchang ing
Ġiniti ates
ĠKal man
Ġ10 4
15 2
sh adow
s i
Ġobfusc ate
yn et
ĠM AS
ĠE AX
Ġyield ing
Ġdef ic
Ġreview ers
ĠCompar ing
ĠEcon om
Ġa str
ĠG ay
pl ication
Ġhead ed
f lo
ĠG CN
Ġnond eterm
onduct or
Ġal beit
ĠâĢ ¢
Ġredirect s
ak in
ĠX u
pro per
ĠResil ience
/ .
ĠSet ting
W P
Ġconfigur able
ec raft
ex isting
install ed
ĠAd aptive
Ġlong est
Ġencour ages
R a
Ġorig ins
ĠT i
pect ing
Ġstack s
Ġal ive
ĠRe lease
Ġprom ises
m osp
W ork
Tr ust
om ed
ĠOr der
Ġfuzz ers
Ġhur t
Ġcoin cid
Ġke yp
b ian
al though
Ġinvest ed
an es
} .
ari a
ĠL TL
un es
ipl inary
ĠC As
Ġban ner
ĠPh ys
ig ation
Ġintu itively
ĠColl abor
Ġtag ging
Ġenhance ments
M E
Ġval ve
h uman
Tor rent
00 2
K G
ĠPro file
Ġprov ably
ĠAgain st
Ġdevast ating
c opy
Ġk ick
Ġposition ing
Ġsub tract
Ġpar am
Ġharass ment
v ille
Ġcl ip
Ġl ect
Ġassoci ates
ĠBas ically
M essage
Ġacadem ia
== =
ĠM all
ĠRe gression
ĠT empl
l r
re ference
R R
A FT
ĠF eder
ĠT re
or andom
Ġimp oses
go ogle
Ġinvok ing
Ġbreak down
Ġconting ency
ĠMach ines
Ġworld s
ĠJohns on
ĠAdv is
tr action
Ġinstant ly
Requ est
hed ul
Ġdram atic
riv ing
Ġlo yal
op ol
Ġachie vable
O ther
Ġeconom ics
ĠB ing
Ġdil ig
f iles
Ġenc odes
ĠBer keley
a que
b ait
Ġcoll ateral
Ġmiddle ware
Ġupgrad es
ĠDef enses
Ġcaptch a
ĠComput ational
Ġsl ave
ĠB rian
Ġover t
ĠSybil s
Ġwe aring
r ication
ĠDav is
ch arg
igm oid
art y
f ts
Ġre actions
ol as
Ġresol ving
ant om
Ġeavesdro pper
ĠCal c
xx xx
opt im
Ġover ly
200 5
Ġ3 60
Ġest ate
Ġinev itably
ĠSar ah
Ġb read
Ġcontrovers y
Ġ/ *
ilt on
qu ery
Ġdescript ive
Ġbill ing
F rame
Ġinter change
i ological
ĠV P
200 6
Ġsus ceptibility
Ġmod ulo
Ġkeylog ger
Ġren amed
ĠNS F
poss ibly
B U
Ġhom ogeneous
Ġwar m
ĠStan ford
Ġeth n
ĠLat in
r ared
ĠII oT
Sc an
ĠCom merce
ĠCol umb
00 01
ĠBrit ain
ĠNET WOR
ĠRequire ments
Ġf ans
Ġwor ried
ĠR DP
Ġsynthes ize
Ġstr and
ĠCort ex
ĠF air
Ġbro ther
Ġran ks
Ġauthentic ating
p arent
if ax
ĠR M
wh o
loy ment
ĠC ounty
Ġdec ou
Ġanalog y
ig ms
Ġexp ired
Ġ* /
Ġn orth
Ġfe els
M al
Lab s
Ġprem ises
inte gr
ĠB and
Ġwin ner
ĠG C
Ġinqu ir
Ġm ort
Ġweek end
Ġconf using
Ġpositive ly
Ġent ang
SS H
Ġsubred dits
Ġsing ular
ĠMIT M
Ġsk y
Ġabs ent
Ġappl iance
Ġdeb t
Ġinev itable
ul z
Ġunre al
d ates
ĠCl uster
ĠW indow
Ġ25 5
P H
k ins
ĠCh uck
V S
An other
ĠB LE
ĠR oman
Ġrelax ation
Ġroot kits
ĠEas tern
Ġforgot ten
meas ure
ĠItal ian
Ġdev ise
ĠAdministr ator
' ]
ĠBu ffer
ĠCol lect
ĠCert ified
Ġspo ke
ĠDLL s
cont ent
Ġconcent rate
ph ase
Ġdownload er
Ġdo zen
in ery
Ġre jection
ĠDevelop ers
ĠC OR
p ret
Ġno body
ĠS ide
ĠQuant um
Ġto uc
Ġsh ips
ĠM u
Ġpolynomial s
Ġover se
ĠW ed
Ġperce ive
ic her
Ġth inks
ig ger
ĠU ber
typ es
Y es
Ġdecrypt s
Ġdisrupt ions
Ġthe sis
ĠIns urance
Ġcould n
Ġw ond
ĠF inding
Ġill icit
on ts
ol ar
p x
us hing
Ġcompens ate
st ore
ĠConn ection
Ġpolit ics
Ġdec imal
ĠRaf a
a uth
system s
ĠC ertain
Ġred ist
ĠM aking
ĠC AS
z ed
ĠP rom
Ġhy giene
prot ocol
ax y
Ġcontribut ors
ĠF F
Ġdang ers
Ġanalys ing
pl aces
Ġrepl icas
Ġmor al
ĠF og
Ġod ds
ĠRobust ness
av en
Ġsend ers
d ays
down load
Ġfool ed
ĠML P
ĠPen etration
Ġpass enger
Ġguess ed
Ġob sole
Ġstri p
p d
ĠMe as
c oll
ĠâĨ Ĵ
ĠMic hel
Ġroad s
Ġf ont
Ġconf ig
f c
Q N
6 00
p op
Ġso uth
an aly
Ġh ints
Pro t
prising ly
Ġj ourn
Ġto wn
le te
ĠChrist ian
Ġt ier
ĠI SS
Ġoptim ality
Ġlog it
n ight
Ġn ons
Ġproduct ive
check ing
Ġdem ographic
Ġdirect ors
Ġformal ization
ĠCR C
em an
Ġint act
Ġsp aw
n P
Ġfli pped
Ġconsum es
Re g
Ġjust ified
() ;
ĠW ITH
Ġrobot ics
ros so
zer land
b at
er ce
rol led
Ġauthor izations
Ġsub jected
ĠD ell
Ġcam oufl
em s
Ġcraw ler
ok ing
j a
Ġactiv ists
Ġappe aling
Ġfalse ly
Intern et
er k
f ish
ĠE le
Ġstand point
Ġcas ual
Ġrelig ious
brow ser
ĠPh ot
ĠB log
ĠLa place
rib e
ĠSW aT
m atically
Ġpartition ed
ĠEd ward
ĠN ets
Ġfrag mentation
ict or
aid u
Ġpit ch
ĠG M
ĠSh aring
Ġ1 80
Ġhold ers
Ġann ually
Ġauthor itative
Ġinstru mented
Ġair b
ĠECD SA
ĠApp lying
ĠP II
ĠVPN s
Ġun not
Ġca ution
Ġhel per
r ad
Ġun obser
ord on
Ġide ally
ĠImag ine
conn ect
up date
Ġsupposed ly
ĠOrig inal
Ġinj ury
Im age
ĠEd itor
ĠL en
sh are
ĠManufact uring
Ġ19 84
Ġgu ides
Ġcon ject
ĠEx ecut
U E
olog ists
Ġdecl are
ĠJose ph
Ġh ides
ĠW EP
ĠLi DAR
Ġcl im
ĠDet ecting
ass er
w ater
ĠG T
ĠVirgin ia
Ġres emble
ĠV R
olog ically
el berg
Ġpin point
Ġarrow s
Ġretrie ving
exp ensive
Ġyoun ger
________ ________
Ġinadvert ently
Ġsnap shots
V al
v o
Ġif f
ĠBas eline
Ġdev iate
ĠK ur
ĠUn less
aps ed
Ġpass engers
Ġpercept ual
ĠAss istant
g ate
Ġmult il
ĠTelec ommun
ĠL uc
riv ileged
gr y
Ġmechan ics
ĠEmerg ency
Ġrepro duc
ĠSwit zerland
b low
L i
in n
ic an
un ter
ĠAss embly
n amed
ĠNe g
i ro
qu ant
Ġfac ulty
Ġexfiltr ate
Ġcharacter izing
Ġdig est
Ġstem s
Ġar Xiv
Ġlog its
Ġloc ating
Ġref use
Ġsoc io
Ġdoll ar
G et
ĠPr ime
ĠG PL
Add ress
ĠSh ield
ĠDev Ops
ced ented
Ġab und
Ġm i
Ġsh ipped
ategor ies
Ġcaptch as
Ġpl ate
ĠDou ble
Ġprint f
Ġcoal ition
Ġsubsc ript
IO NS
Ġint ense
sp ot
B O
os a
H el
mat ics
ĠTerm inal
Ġamaz ing
MS E
Ġteac hers
pro b
ble ms
Ġel ected
l ad
ent er
Ġspecial ist
Ġres ort
app lication
Ġpseud orandom
ĠD EP
Ġrecogn izes
ĠAff airs
l at
St ate
Ġnot ices
ĠGo al
ĠF eed
st ack
Ġment ions
ĠR PC
M any
re ce
pp y
Ġbootstr apping
ind s
iz z
ĠSil ver
Ġcomp ose
op ter
Ġinv ited
op es
Ġa st
ĠN avy
ĠH PC
Ġ ion
ĠI EC
d ot
ĠQu ick
Ġcoordin ator
Ġrational e
ulo us
i ot
sh own
Ġfli pping
he meral
Ġgl ance
E ach
f i
Ġf ax
le ton
ĠEth ical
Ġinter dependent
Ġmon et
ident ified
Ġnever theless
Ġintercept ing
H ere
Ġhypot hetical
riv ially
it ious
Ġj e
v arying
Ġlog ically
ĠCo in
Ġb orn
ĠP AT
wr ites
ĠBY OD
M et
ist ance
S ch
Ġexpir ation
ĠBr idge
ĠMo ving
Ġcl ues
v as
ĠElect ronics
el er
Ġarg ues
ĠRet urn
Ġent ails
iss ue
Ġto x
Ġextract or
Ġcasc ade
greg ation
ĠTer ms
Ġcoll ector
inf ected
Ġag ile
am ous
ĠM im
ĠDB MS
ĠB E
Ġcommit ments
Ġunpre cedented
Ġbro ker
C ode
ĠH um
arg o
ĠR GB
Ġb io
p ire
ĠT an
ĠIm m
Ġdiscr imination
ĠIss ues
R em
ĠInit iative
ag ers
Ġcollect ions
Ġc ab
Ġless er
Ġcontract or
s ided
Ġpro ceedings
Ġfr uit
ĠG NN
Ġn ick
Ġcont emporary
Ġhand ed
g row
Ġmind set
Ġprevent ive
ĠMark eting
ĠAlgorith ms
advers arial
Ġper vasive
ĠConvolution al
ĠFor mal
Ġref used
ĠEs pecially
W are
ro t
ĠL agr
2 50
entr ancy
A ccess
Ġpassph rase
V ersion
Ġprot ests
Ġdecrypt ing
ĠD ATA
ĠN O
Ġperipher als
F inally
Ġroutine ly
Ġst ole
Ġlog ics
Ġimpl ication
t ions
ĠPat rick
Ġclear ance
Ġsanit ization
Ġafter wards
Ġre ar
ĠBack up
Ġsp ots
Ġjam mer
Ġeaves drop
L STM
Ġcomb inator
Ġkeylog gers
art ner
wh ite
ĠD GA
Ġem ulated
Ġoccup ied
Ġmisbe h
Ġcre ativity
t ask
ĠM ike
ict ory
r ison
ĠZ ig
sh ops
ĠSh ould
reg ard
O ver
Ġcount erex
U B
Ġsu pervisory
I J
ĠW F
c py
Ġin ferences
Ġfor ge
Ġlo ud
Ġdeleg ate
o ul
Ġd ied
17 4
typ ically
im it
Ġupgrad ed
g ood
ack et
r us
Ġdis asters
Ġoffer ings
G C
Ġtravers al
Ġr amp
ĠAut onomous
Ġgrant ing
Ġal ike
AD I
Ġthro tt
ĠXe on
ĠG ra
ail ing
ĠSup reme
Ġdifferent iable
Ġunp rivileged
ĠG od
ĠPh ish
ĠK DD
m ond
ĠIn form
ĠCustom er
ari ous
Ġdisc overs
res istant
AG E
ĠR n
Ġlist ener
ut ical
il ly
ins urance
ĠP AN
Ġthreat en
Ġc ables
ĠNetwork ing
' ve
( (
ĠAr m
grad uate
in ner
Ġdem o
az y
ĠIs lam
ĠP ID
Ġdialog ue
g ithub
Ġdis allow
ĠDut ch
Ġhy dro
Ġimp ressive
Ġtra verse
Ġparad igms
Ġsettle ment
ĠV ery
Ġsubdomain s
orig in
Ġshuff ling
ĠB loom
rosso ver
ben ch
ĠP B
ĠF ing
Ġfoot hold
Ġfit ting
Ġut ter
ĠU V
Ġz ip
Ġop code
ĠAnd erson
ĠSP EC
ĠOn ion
Ġand roid
ĠD onald
Ġweek ly
c ert
Ġdifferent ially
ĠL A
f a
on aut
Ġperturb ing
ĠSep ar
Ġprov able
In formation
Ġe b
Ġretrie ves
as ions
Ġepid emic
Ġpl t
O nce
ly mp
ĠI MP
ĠM oh
Ġconvin ced
oun g
sim ulation
um s
SA T
ĠCD N
f ound
eng es
en u
d og
Ġart ist
Z one
ot et
el ve
Ġmist aken
Ġhas n
Ġinter le
Ġcur ious
ob fusc
ĠIdent ifying
min ing
Ġcurric ulum
Ġpl at
Ġencompass es
ace utical
ĠH all
. âĢĻ
ĠS zegedy
Ġweb pages
ĠSh am
uc le
Ġport ray
Ġres embles
ĠG TS
ĠKnow ing
ig ration
I ES
w ave
Ġn ets
ĠG ar
ĠRel ations
C F
Ġeduc ate
Ġun structured
Ġvent ure
Ġ čĊ
Ġunre stricted
sm all
Ġquant ified
Ġinnov ations
Ġparticip ated
Ġv acc
Ġexc luding
ard en
Ġcoun cil
ĠProper ty
ĠMan ual
ut ers
Ġen velop
Ġcar bon
Ġpubl ishes
Ġmotiv ates
ĠIntegr ated
ĠRE ST
Ġb ins
ĠAl pha
Ġconv entions
Ġsympt oms
Ġconstruct or
L Y
Ġt s
r ants
)- (
ĠN I
m essage
vir tual
ĠF unctions
Ġag end
' :
tr ace
Ġpriv ately
bul lying
f d
att ered
ĠNo ise
Ġouts ourcing
Ġcontain ment
Ġ ice
Ġun labeled
In ter
G ood
ĠB A
ĠP AD
Ġm un
Ġdeliber ate
ĠNot ably
ĠAv ailable
Ġdisconn ect
ĠE IP
Ġsustain able
Ġhex adecimal
ĠP redict
D H
ĠO k
Ġsimpl ifies
ie ves
M ost
tr ue
oun ce
h ar
Ġsort ing
ĠComput ers
g reen
ĠO lymp
ĠTyp es
T O
Ġlaw yers
Ġsil icon
ĠPak istan
Ġflow ing
Ġcontroll able
ĠK i
ĠStat istics
Ġauthentic ator
Ġfeat uring
ĠL F
ĠOpen BSD
v ard
ĠWr iting
ĠCon tain
ĠS ix
ĠObser ve
ĠS ER
Ġcal endar
Ġund ec
ĠAdv ances
Ġarrang ed
ĠAcad emy
Ġrestr icts
Ġrecurs ively
ĠP ur
Ġobsole te
P ay
Ġto ugh
Ġem otions
op ard
ut ations
Ġa erial
Ġinvestig ative
o z
tr usted
Ġesc row
Th ings
B usiness
W in
Ġprom ised
Ġexpect ing
Ġoblig ation
Ġbe at
ach able
Ġout break
Man ager
ble ed
Ġschol ars
ĠN IC
Ġjust ice
ĠHu ang
anc er
Ġrepe ating
Ġ rom
ĠW AN
L O
Go ogle
D LL
Ġro wh
Ġass ured
ĠStack elberg
} \
Ġcom mented
by tes
Ġin active
Ġpred ators
ĠCert ification
ĠA ri
Ġalleg ations
B lock
ac ency
Ġsk im
ĠF reedom
c md
at io
Ġ16 0
AT T
Ġhack tiv
Ġunsu ccessful
Ġrev ision
M y
t ree
Ġpr ints
ĠEqu ifax
Ġb ip
ĠS it
ado op
char acter
200 7
en a
Ġg ear
ĠRec ord
Ġconf use
ĠDep ot
Ġaud itor
ĠF T
Ġdisrupt ing
Ġtemperature s
ĠN G
ĠStrateg ic
ĠI raq
ri er
w atch
ĠC BC
Ġmult itude
ent h
Ġres idential
ĠComp et
do ors
Ġpercept ions
ĠIncre asing
Ġper t
Ġ18 00
C ol
an et
ĠH en
ass isted
Ġcolo ur
ĠSw iss
Wr ite
Ġterr itory
Ġlegit im
Ġm aker
Ġreven ues
ĠH ub
ĠEm otet
ĠPart ners
ĠTow ards
Ġchar ts
il ation
ĠD er
inc lude
Ġvalu ed
Ġhe ating
s ym
ch a
Ġapproxim ated
or ms
ĠO TP
Ġmult ivariate
Ġissu er
Ġw ins
Ġfacilit ating
Ġexperi encing
im ulation
Ġl ens
Ġp al
Ġupload s
c urrent
Ġliqu id
ĠNig eria
c ases
Ġconc ise
ire ment
ĠProgram s
Ġwe igh
Ġrank ings
per turb
mat ical
ĠC ipher
Ġpip elines
ĠSwed en
B B
Ġsan ct
Ġapprec iate
Ġjourn als
ĠB ERT
anc ies
Ġrol led
l ar
ĠF ault
Ġst ars
Ġdescript ors
Ġbl ame
Ġt rivially
ĠParticip ants
C onn
Ġqu otes
ĠX HTML
ĠL ay
ĠAct ually
ĠNe ighb
ack s
ll a
Ġimpact ing
Ġinterrupt ed
Ġeigen values
ap es
Ġarch ives
Ġel ig
B G
Ġh ang
S Y
Ġtreat s
Ġens embles
Con f
ĠM as
Ġdi ameter
ĠExperim ents
Ġqu oted
Ġmolec ules
accept able
Ġn est
Ġamb ient
Ġspreadshe et
H ost
ĠSc ore
Ġtrans cript
ĠC ategory
Ġindex ing
r ators
Ġi T
Ġindex es
Ġe lic
ĠCo ord
man agement
P OS
s rc
for cing
Ġse a
Ġsubmit ting
Ġpuzz les
Ġb ond
Ġn t
ĠSt ation
Ġalloc ates
Ġdisput e
Ġexhib ited
Ġpredecess or
ĠForm ally
Ġd B
Ġenh ances
t as
Ġinser ts
ynam ics
SS P
Ġbroad band
OD V
op ic
Ġadvoc ate
ound s
erpr int
Ġresol vers
load er
Ġsett led
} ,
Ġmicro grid
Ġsub stations
Ġarriv ing
ID E
FF FF
Ġreal time
est r
Ġen roll
orth y
c ondition
C or
ĠCon tract
ĠSym bol
b el
pl us
Ġprogram me
ĠR R
ĠF ab
Ġhead lines
Ġunderstand able
Ġfet ched
ĠWed nes
ĠAC E
Ġcertain ty
tr iggered
p ython
ock ets
ĠCred ential
Ġhar ness
Ġo ught
So ftware
ĠN avig
ĠS olution
ĠAl an
G N
ole v
Ġund erest
EN TS
ĠVe hicle
Ġp ause
Ġre us
tr acking
Ġsil ent
20 4
Ġexpl oratory
ĠG SM
ĠN uclear
Ġstrateg ically
Ġsupplement ary
k le
ĠF E
ĠRec ords
lic t
p in
24 2
Ġnot ations
Ġappro ached
st one
b ec
ĠB aidu
P e
f ake
Ġ12 7
t z
Ġwork around
Ġunderstand s
Ġcle ared
Ġmed icine
Ġfluctu ations
Ġplo tted
Ġqu bits
ĠSe attle
Ġmal function
Ġdisclo sing
Ġf ro
Ġur gent
ĠD G
Ġdoct ors
ĠCap ital
ĠIss ue
ĠSche me
Ġdiscrep ancy
Ġshort age
ĠAd a
AN T
Ġstay ing
ĠS low
Ġanonym ized
Ġtrap door
ĠGay le
Ġinconsist encies
Ġmur der
ĠTensor Flow
Ġco lored
Ġinflu encing
ĠRead er
Com put
ĠKE Y
ĠV iet
Ġh unt
im m
Ġinform s
ino is
- ,
Ġcoun sel
focus ed
Ġignore s
Ġem issions
Ġfav our
ĠC it
Ġint ens
Ġinter mitt
add ed
Ġretain ing
ĠCh urch
Ġder ives
ĠDO I
om ing
N ets
ĠIdent ifier
Ġtre ating
Ġasc ertain
ĠAdvers ary
Ġsust ained
Ġpsych ology
Ġoppos ition
ĠIdent ify
duct ions
ĠBr and
Ġtab s
ĠDemocr atic
G T
o ften
ĠP SI
Ġrev is
r id
ĠBre ach
Str ing
Ġany body
ĠEmbed ded
b as
ĠEmploy ees
ĠI ND
ĠD am
Ġunderm ine
Ġalt itude
par se
Ġt ill
Ġp d
Ġguid eline
Ġmisclass ify
ig an
Ġpent esting
Ġh i
ĠCor ollary
ĠBot net
Ġ1 10
Ġe ax
ist ers
5 12
Ġp icks
ĠOper a
ĠPartic ularly
S u
Ġcaus ality
Ġgest ure
R un
Ġrowh ammer
lo v
ĠFor ward
reed y
Ġadvance ment
Ġor acles
ĠF i
ever se
Ġfirst ly
ĠH adoop
Ġ14 0
def ault
B ack
t cp
ĠD WORD
Ġtroubles hoot
ĠT ogether
lic king
ĠSer vers
Ġsurv ival
amp ol
Ġprepared ness
ĠFour th
ĠP ri
Ġkill ing
Sh ield
ĠF lo
Ġviol ent
V AL
Ġinspect ing
p rior
ĠR ST
v ec
ĠC i
re asing
ĠP otential
ĠD al
des igned
ĠA cknow
Ġback wards
amet ers
ĠMitig ation
em ploy
Ġparameter ized
ĠInnov ation
eros pace
t u
Ġ* .
ĠD K
t une
Ġdivid ing
b usiness
up id
ĠRes ources
Ġgover ning
add le
Y PT
craft ed
at able
Ġ19 86
ĠMAT LAB
b ro
ĠPR OT
Ġt ed
Ġgran ular
Ġpress ed
establ ished
ĠL ake
Ġapproxim ations
in ational
ĠProtocol s
Ġgo ogle
ĠGet ting
ĠA BS
W AN
o en
Tr ack
ĠSh annon
ev alu
o ying
Ġcritical ity
Ġder iving
Ġformat ted
ur i
Ġsu ites
ist le
ĠEx pos
Ġh inder
ĠR am
ĠStr ing
Ġhop es
Ġcorrect ed
ĠBel g
ĠWiki Leaks
Ġun modified
Ġev id
ven ue
Ġto m
Ġmind s
ĠWednes day
ine ar
Ġt i
Ġatt itudes
ĠAv oid
Ġemit ted
Ġlo ses
ĠAs h
res il
AN N
Ġpi lots
r im
S pace
Ġv ess
ĠH as
Ġdiffer ing
ir l
Ġunivers ally
Ġconfir ming
ĠAg reement
ĠCrypt ographic
Ġin ert
ele b
Ġsetup s
Ġpa ired
ĠP in
ĠPre m
Ġmultiple x
ch an
ĠU EF
Ġcryptograph ically
res pective
Ġind oor
ĠEv olution
Ġ. /
Ġel imination
Ġ rival
umer ic
up load
Ġshoot ing
ĠP ool
Ġan imal
ps on
Ġreflect ing
Ġambigu ity
hod an
ĠK ar
Ġbo y
Ġunf air
ĠCS I
Ġobsc ure
ĠG ordon
ĠV B
ud iation
respond ing
Ġart ists
Ġdemand ed
f ool
ter y
Ġincom patible
fe ature
Ġin expensive
Ġv ault
ĠNort hern
s afety
Ġsal ary
ĠIR S
Ġgover ned
Ġda ughter
Ġproduc ers
ĠGr and
ĠIM AP
ĠP resent
ron ets
Ġrecommend er
resp ons
Ġs ne
ĠW ood
Ġcomprehen s
M R
Ġcent re
W L
r ass
min ute
Ġsuperv ision
alk er
Ġg lit
ograph ics
Ġargu ably
ĠH a
Ġinstant iate
w al
Ġmathe matically
Ġp ear
Ġelement ary
Ġal ias
ct l
ĠSt orm
clo sed
ĠIsra eli
Lib rary
fer ing
ĠAl t
Ġren ders
Ġarrang ement
G Hz
Ġindu ces
ĠAn alyst
Ġfl u
Ġreconf iguration
Ġcompil ing
Ġvigil ant
11 8
Ġj u
Ġpol ling
Ġparamet ric
ĠBr anch
Ġpr a
Ġwar n
v ity
Ġenc lo
Ġnegot iation
Ġdisgu ised
ĠImpro ve
Ġover writing
Ġhead ing
Ġsim ulates
ĠEn forcement
AR K
ĠChar les
Ġdistinct ive
Ġg y
Ġlog istics
hen g
br and
threat s
iqu eness
Ġsnipp ets
ĠAj ax
ĠO nt
bur g
c u
dist ribution
Ġis land
Ġoper ands
ĠChall enges
ident ification
Ġconc urrency
ĠOper ational
Ġe at
ĠC n
pol icy
ĠSt o
Ġhistor ically
ĠN L
Ġshap ing
ĠPU F
S H
an ching
Ġundert aken
ĠCY BER
C ar
Ġpre trained
ĠCl ark
Ġad apter
Ġres emb
ind u
Ġdep rec
b est
Ġc ues
Ġinterconn ection
en able
the y
Ġoff ense
M ad
Ġque ues
ĠDN SSEC
ĠProv ider
ul ink
Ġwalle ts
ĠTur k
Ġc rop
SM S
More over
Ġmod est
Ġloose ly
Ġsatis factory
Ġst orm
Ġpartic le
EC TION
l inks
Ġref resh
ĠAss urance
Ġadvert ise
Ġjournal ist
ĠFR OM
U ID
ĠZ K
Ġr u
Ġdiagn ostic
Ġsp ac
Ġtw in
Ġc rossover
Ġsur pass
Ġiniti ating
C heck
Ġhard ened
ĠTr ace
Ġcomp elling
over ing
ather ing
ĠCar lo
ĠHel lo
ĠB N
ĠTrans mission
path y
Ġms g
Ġexp enses
Ġsuccess or
ĠOS I
ĠMI A
Ġdat agram
ant age
t ailed
Ġ19 85
Ġearth qu
ĠMary land
ĠStat us
ĠAV s
Ġsuspect s
Ġcomplex ities
ph ony
Ġsoc ially
ĠA i
Ġep hemeral
Ġact ed
u er
ĠConv ention
ĠRob ot
n ostic
Ġtradem ark
ree k
Ġtask ed
chang ing
h ack
â Ħ
v ens
am iliar
Ġprom otes
Ġman eu
Ġpred ator
ĠFound ations
Ġdistr ict
a ired
Ġtr usts
ĠW ired
R OM
Ġne uro
ĠE arl
Ġsp oken
D O
Ġremark able
us et
Ġdr ift
Ġs rc
UC TION
ĠWeb site
olic ited
et al
ĠDist ance
de gree
Ġu pl
ĠO x
ĠWH O
Ġevol ves
ĠRecomm end
ĠTr acking
Ġh all
Ġcont est
Ġfore ver
Ġexc iting
ĠResp ons
Ġpseudonym isation
Ġbeaut iful
ĠD olev
Ġsent enced
Ġcool ing
F ree
ac ements
Ġe go
Ġunreal istic
Pro gram
ĠEns ure
ĠIll inois
as m
ĠW A
Ġsh ock
Ġaggreg ates
En c
W T
Ġco ast
alle y
Ġsqu ared
Ġcon formance
Ġpriorit ized
led g
ar us
Ġmultipl ied
cor rect
ĠSolar is
Ġbre ath
Ġrenew able
Lo ad
Ġintercept s
Ġir re
ĠComput ation
hol es
Ġdraw s
cap able
Ġelev ated
t w
Ġpar sed
Ġc ave
stitution al
ĠG F
M em
ĠO cc
Ġtele metry
ĠN odes
ĠSupp ly
ĠS print
Ġfing ers
pervis ors
ĠB us
ou p
ĠSnap chat
initial ized
ĠCon clusion
Ġpriorit ization
K DD
ĠInf o
im port
ss h
ĠT I
ĠRes erve
Ġescal ate
ap ol
Ġif rame
Ġplug ged
Ġtoler ate
ĠExper ts
ro y
ĠV ice
Ġ> >
Ġrul ed
E ven
Ġp aint
Ġj unk
A m
ĠRe ading
gy pt
Ġequilibri a
ĠR IP
ĠM ill
ĠN ative
Ġsqu ares
Ġeditor ial
Ġhigh way
ĠB ren
Ġslow down
l aim
Ġflaw ed
ĠOlly Dbg
e ption
ĠTh urs
im plement
ĠR ank
Ġjust ification
N ow
F e
Ġaband oned
Ġunder go
Ġsoci eties
Ġlist ings
Ġview ers
Ġdispos al
ĠBit Torrent
Ġalloc ations
Ġdisgu ise
ĠEC C
Ġinterp olation
ĠColumb ia
âĦ ¢
2 13
ij ing
s ample
ĠIm ages
et ed
Ġatt r
ĠR and
ĠE E
Ġâ Ĥ
ĠK A
ĠKre bs
N etwork
ĠL oc
olog ist
Ġsat uration
Ġhit ting
b f
ĠProt ect
l ected
Ġem power
ĠAb s
Ġtransist ors
Ġprompt s
Ġun secured
ĠPer turb
ĠIET F
Ġshe l
D i
Ġth irty
Ġat mosp
Ġent hus
Ġmark up
ĠR apid
Ġaggreg ator
on a
be ing
ĠL M
fl ix
lot te
for ced
AAAA AAAA
ĠQu ad
us cript
ĠG artner
ĠSpec ification
Ġpoll ution
t ags
Ġâ ī
Ġdise ases
Ġde activ
Ġc af
HT TP
Ġtw elve
D rive
ip se
E d
Ġd ens
ĠC ell
Ġjurisd ictions
( $
S V
C ache
I SA
Ġp ins
Ġar my
iz ability
Ġwel come
Ġspl its
P G
Ġbal lots
Ġconf ron
ĠR ound
Ġsh allow
Ġfound ations
Ġsubs ections
Ġpredict ability
be at
ĠCor p
ĠM N
ul in
f igure
Ġdomin ate
Ġcounterfe it
ĠA UT
ĠIll ustr
Ġind ef
gorith m
Ġseam less
o in
St ation
ĠMag Net
Ġmaxim ization
am ming
Ġpre empt
âĢĶâĢĶ âĢĶâĢĶ
Ġpursu ing
Ġre build
ult ure
Ġsol vers
if ting
Ġ19 50
Ġspecific s
Ġwr ap
Ġfre el
re fer
it arian
Ġst ere
Ġag nostic
Ġcomm erce
ĠGTS RB
w ing
Ġcompet itions
Ġcraw l
Ġunlock ed
ĠLim ited
appro xim
o C
ĠS hodan
b ad
aut om
Ġcontribut or
dist ance
ĠT OR
ĠAD D
Ġapproach ing
tur n
11 1
Ġwal ks
ul atively
ĠProcess es
Ġoverr ide
Ġem bar
Z E
els on
H y
Ġwr apped
Ġwond ered
c i
us pecting
Ġlingu istic
Ġre vel
Ġpos ing
Ġcr ashing
Ġindic ative
v id
Ġc iting
Ġtransmit ters
Ġdistingu ishes
Ġ" /
ĠComm ons
Ġtransform er
ĠOr ange
Ġimm un
Ġbot her
Ġim balance
Bl ue
Ġinf rared
ĠQu est
ich t
ĠDifferent ial
Ġfab rication
ĠArab ia
Ġstat eless
ĠUs age
ke ep
Ġm orph
Ġless on
Ġsuggest ion
ot ically
Ġquant ification
ag le
ach uset
Ġcustom ization
Ġv ic
Ġpresent ations
AC H
ĠS ure
ĠEx cept
z o
ĠM aps
Ġpass ion
Ġmot ives
Ġpert inent
Ġa gricult
ĠM ove
ĠO wn
Ġresearc hes
Ġtrick y
Ġencount ers
Ġele g
ĠChar lotte
ĠDR M
ĠTerm inator
ĠR everse
Y ao
Ġalloc ator
Ġdecl ined
ĠA le
AT ED
Ġcross ing
con vex
idd ing
ĠMe ga
Ġadjust ment
ĠMan aging
Ġvolunte ers
achuset ts
US E
ĠNorm ally
ĠR ust
en h
Ġor bit
ĠD OP
r t
ĠR EL
Ġvac u
is a
Ġvalid ates
ĠH MM
ĠNex us
ĠN IS
Ġdef ences
ĠRe in
ĠStat istical
C AP
ĠB arb
sc he
Ġmult is
ĠC ru
Ġbelie ving
Ġthrow n
Ġunint entional
Ġclust ered
Ġacknowled g
E U
f ounder
im a
Ġoption ally
Ġmeas urable
ĠM ining
er ved
ĠAs ide
Ġtrace back
St art
Ġmagn itudes
uts ch
ĠA ge
Ġwe ird
AM P
ĠH z
Ġautom ating
OW N
ĠFor bes
16 0
ĠDef ine
ĠBen ch
ĠAs ian
ĠOpen Flow
Ġ19 87
MS I
ĠP SP
ant a
str ong
E NS
ĠAlex ander
Ġinspir ation
er ies
od al
M ax
ĠExplo itation
ĠTrust Zone
Ġhous es
Ġw ise
ĠMin i
Ġilleg ally
Ġsc iences
ĠNe o
ĠC op
ĠF el
com patible
Ġfoot ball
ĠSV HN
ĠPar ameter
Ġhub s
ĠF lex
Ġr ide
d ocu
eli very
ĠIntegr ation
d iv
ubl ished
m ember
ĠH one
rob or
AR N
Ġmean while
1 20
Ġindef inite
at ar
ĠTr ack
ĠOb fusc
ĠIn ference
Ġaler ting
Ġincent iv
c n
10 3
ĠT PR
Ġconvic ted
ĠLou is
Ġt rojans
ĠS ite
Ġlook ups
ĠV ul
it ime
N R
Ġsell ers
ĠST R
Ġrevers ed
ĠV ictor
SD N
ĠL ack
Ġintermedi ary
ĠConfidential ity
n ick
Ġadvance ments
ov a
ĠIns ider
Ġm ined
200 4
Ġkeyst ream
are a
ĠSYST EM
Ġre cept
Ġend e
Th read
ĠRe le
ĠT itle
Ġactu ation
Ġcyber physical
Ġin hib
ĠX i
Ġwere n
Ġrespons ive
ĠThurs day
t imes
ĠG ab
ĠE gypt
Ġinfiltr ation
Ġ( '
Ġshort cut
m ind
Ġcoll usion
Ġdele tes
Ġh yp
Ġscram b
Ġexc ited
. '
P DF
s hell
ad s
ĠCred it
b d
Ġgen ome
toler ant
al c
ĠAny one
i en
Ġun acceptable
Ġsign er
Ġacc red
ĠAtt orney
ĠVe hic
us tering
Ġwhitel ist
B ecause
Ġsim ulators
is ks
f ast
OT A
w p
P ar
Ġinfring ement
Ã ¶
ĠF ellow
Ġgen es
Ġad here
ra id
O UR
Ġsys log
ĠColl ection
Ġsubrout ine
11 7
ĠPol icies
Ob ject
ĠGal axy
Ġwhite box
Ġfeel ings
ĠNet flix
l isting
Ġtrad ed
comp onent
ĠAnt ivirus
ĠC ondition
gress ive
st ates
ul atory
Ġvalu ation
s end
Ġfraud sters
Ġa wards
ĠHealth care
Ġn ur
Ġmicro services
Ġpropag ating
ĠExt ension
ĠN X
ĠTransport ation
ĠInsp ired
ĠL ength
ĠMall ory
N SA
Ġdown link
calc ulus
Ġembar rass
om es
Ġl ived
Ġuns olicited
Ġnot ew
Ġcent roid
ĠDense Net
ĠS ame
U sing
Ġn ort
ĠD yn
Ġbr anching
Ġgrab bed
Ġprof ound
Ġinv ocations
K e
ĠL uck
Ġl en
ĠAT Ms
i per
ĠAg ents
ios ity
Ġv ague
ĠC orn
Ġdisrupt ed
ĠP DP
ĠCompl iance
ul se
ĠSim ulink
Ġgr asp
ĠFranc is
ĠF it
Ġres on
Ġin box
ĠG bps
Ġbid irectional
t age
ĠMeasure ment
Ġrepl ica
grad ient
c irc
Ġd irty
el iness
ĠM bps
Ġcol luding
CS I
om a
Ġold est
ĠUn icode
Ġres ident
l ast
ĠE ither
ĠCISO s
Ġimp orts
Ġcard inal
ĠPay ment
Ġ5 000
ĠMass achusetts
W ave
Ġnotew orthy
H D
Ġhook s
Z Z
Ġcharacter izes
ĠM IME
ĠEm pir
Ġbehaviour al
Ġproduc er
Ġsanct ions
inter active
Ġwave form
Ġpolit icians
Ġresult ant
ĠIs land
Further more
Ġpass code
Ġsynchron ize
ac ons
ĠY oung
Ġprosec ution
ation ally
Ġquant ifying
Ġemphas ized
ĠJ en
Ġvir al
Ġel astic
ĠNOT E
ĠT emporal
Ġassist ed
R NN
ĠI KE
gr ids
Ġste pping
Ġ _{
Ġs i
Ġuns uspecting
ĠS yn
Ġluck y
Ġoverse as
ER E
Ġsecret ly
Ġvolunt ary
M IT
Ġhope fully
s ocial
ie ve
pr ints
EP T
Ġprefer able
ĠHacker One
g re
ĠP ow
Ġm n
ab s
ĠN aive
}} }
Ġ Ï
Ġs ized
Ġsub class
Ġfact o
aby te
Ġredes ign
Ġch amp
ĠComb ining
ag ger
Ġadj acency
Ġfound ational
m ount
ar ms
j ail
Ġb ub
Ġdipl omatic
l t
ĠPar is
ĠCT O
ĠF CC
ĠDie go
Ġdirect ives
ĠCons ult
ĠTel net
ĠJ avascript
p c
Ġcondition ing
D irect
p redict
ĠR EC
Ġto ys
f eed
ĠL ulz
mem bers
Cl ient
Ġcol on
Ġalloc ating
ĠM aterial
Ġrem arks
Ġfem ales
an iel
Ġinconsist ency
ĠWe ek
Ġsu cc
ĠProt ected
Ġpropag ates
ĠProp osed
Ġp ill
ĠCh at
Ġincon ven
> .
Ġoptim ally
Ġgr ade
Ġvol atile
ĠP TR
Ġinst ability
Ġsur fing
ĠJ r
Ġreser ve
En g
Ġsink hole
pass wd
Ġsuffic es
Ġaltern ating
Ġcut s
l an
Ġb ait
Ġpan ic
8 203
ens ed
ĠJ ason
AS H
Ġbal ances
t een
ĠE AP
Ġadvoc ates
ĠCh arl
Ġdistinguish able
meas ures
Ġdi et
ogen ous
G R
EX E
ĠProper ties
ĠAnaly zing
Ġmand ate
per iod
Ġdist ant
C ert
Ġf ires
f uzz
ul f
Ġsil ently
Ġfresh ness
Ġres iding
ĠA uthorized
Ġnew est
Ġrul ing
: /
ĠHeart bleed
ĠR ock
qu es
Ġcelebr ities
Ġpartnership s
Ġwhere ver
Ġfl ush
In it
Ġaffili ated
U ST
uck er
Ġtrick ed
ĠS ET
Ġindistinguish ability
K it
Ġenc od
ĠIP C
Ġcapac ities
p ub
hel p
Ġdeath s
ĠMax imum
h u
ĠH igher
Ġformer ly
ĠPhilipp ines
empt y
Ġsmell s
Ġb orders
Ġmult id
Ġmig rate
ĠV C
f unctions
int erest
Ġnote book
Ġmut ex
: [
Ġl unch
LE D
Ġv antage
Ġmark er
ĠTh read
Ġobserv ational
Ġpropag anda
ĠTal os
pt r
Ġted ious
ic ative
tr ust
Ġgen omic
ĠR DF
the ning
Ġmitig ates
at isf
ĠO ld
ĠH V
ke ys
Ġplan es
ĠX S
Ġtrust ing
Ġdestr uct
Ġim balanced
Ġoff sh
tun ed
ĠP W
ĠB O
ĠG RU
Ġimm ut
Ġappoint ed
AD E
Ġground s
B ee
Ġh t
ĠT ik
ĠG am
Ġshe er
Le vel
ĠMot or
Ġasym metry
Ġint ends
ĠiT unes
art ic
cy cle
ĠName ly
Ġmonot on
Ġpod cast
Ġ19 83
Ġfrag mented
ĠMont i
ĠPriv ilege
am ation
Ġn ucle
um in
12 5
ĠSub ject
Ġexception al
ign ment
ĠA H
Ġvolt ages
Ġinsurer s
ĠSec ur
Ġex its
ĠPM Us
Ġing red
Ġpredict ors
Ġepis odes
EN D
Ġdecomp osed
Ġreg istering
ib et
ĠKe ys
ĠCr iminal
ĠM O
emb ered
Ġdestro ying
B ook
Ġlear nt
gin x
in ch
Ġacquire r
ol ith
ĠMal ays
Ġsyn d
ĠCh air
ĠIN TR
Ġconduct s
Ġcirc ular
P ol
Ġs ad
st op
Ġsn oop
ĠSch mid
ĠK ol
oen ix
ĠH ur
ĠO ption
ention ally
**** ****
bn b
h ash
Ġsuffic e
Ġref res
ĠW OR
ĠTrans action
acer b
ch itz
Ġph ishers
sp am
Ġr um
oll ar
PU T
Ġprototyp es
Ġrel uct
IT S
Ġbank rupt
ound ing
Ġtang ible
Ġm outh
Ġrel ief
Ġkn ock
ĠCom mercial
ĠAss et
ĠM ik
ĠP it
or st
Ġinstruct ed
ifi ability
Ġproced ural
ĠTra vel
b ecause
ac her
ĠC li
ĠF AA
Ġinform ing
f alse
ĠF inal
terror ism
Ġic ons
ot ype
Ġg ar
osh i
en ames
Ġf asc
ĠPan ama
Ġh ind
er ver
Ġf ading
Ġmicroarch itecture
im er
ĠPir ate
at i
Ġexp orts
Ġreal izes
elt a
id irectional
12 1
Ġin h
s witch
Ġfacilit ated
in vest
Ġiter ate
D NN
Ġprohib it
Ġcred ible
ĠEvery one
Ġbe ings
ĠAm endment
ĠMI LP
Ġasympt otically
Ġun iqueness
ĠO pp
Ġconject ure
AD ES
Ġ19 82
Ġwitness ed
W H
cs v
t hes
) '
ĠHar vard
Ġadd itions
Ġar sen
Ġfil ing
l ived
Ġcrit ically
ĠW M
Ġse al
ĠEC G
b atch
Ġfin anc
Ġinterconn ect
Ġgro ss
Ġorgan ic
Ġz u
b etween
g t
worth y
Ġb es
ot yp
Ġcons ortium
ĠSqu are
n is
ver ts
ms g
ĠMichel le
ĠRout er
Ġsub missions
Ġunus able
l ance
un ov
Ġcon gr
bre lla
ĠSel ection
Ġpursu it
Ġin vert
Ġse ized
U sers
Ġsp elling
Ġdef er
Ġsuff ering
elf are
ĠVe gas
Ġdeter ior
Ġtelecommun ication
ĠBe ijing
Ġdefe ated
Ġimper fect
se y
Ġmotiv ating
ĠH MAC
) ?
T ag
ribut es
den oted
P re
Ġp ane
C ore
mod els
E vent
Ġmiss ile
Ġmag net
Ġpar ity
Ġopen ly
Ġbreak points
ĠL ew
De vice
ogn itive
Ġop aque
Ġrep orter
Ġpass ively
sh ow
Ġpolar ization
ĠA A
comprom ised
I Q
d ra
he alth
ser v
Ġtestbed s
ĠV T
s ures
Ġinterpre ting
l ined
Ġmod ulus
yp ass
ĠPh D
Ġapp lets
pro c
Ġopp onents
Ġdispar ate
Ġch rom
Ġbel t
FG S
ĠC arb
Ġpercent ages
Ġisol ating
ĠTR AN
ĠH al
ĠF ul
ĠComp onents
Ġaf raid
Ġdown side
ĠArch ive
Ġguest s
Ġegg s
Ġpolym orphic
Ġencod ings
as ons
ĠEnd point
ro le
Ġun install
Ġilleg itimate
Ġouts ourced
Ġ1 18
ips chitz
w s
Ġmanip ulates
D K
Ġun ve
Ġposition ed
Ġl s
Ġpack aging
ĠEston ia
Ġimp lying
Inf o
Ġcombinator ial
ĠD ER
ĠEn umer
ĠTur key
Ġgeo location
Ġa ro
ick et
ĠH i
Ġdiss imilar
yst al
Ġbefore hand
ost ics
ĠEvery thing
ĠL ever
Ġstart ups
ĠB ash
ass oci
Ġinsp ected
A v
Ġanc est
ĠV alley
ĠSim on
itud inal
Ġnovel ty
Ġagend a
Ġsupport ers
App s
Ġsurv iv
Ġwork ings
Ġbr ake
Ġbe aring
pl icit
ĠL ID
ĠPer cent
ĠSo C
Ġsure ly
ĠDig i
Ġcos ine
Ġaut oc
ĠSt op
Ġresearc hed
Ġamb iguous
Ġpros pective
Ġ4 43
Ġsal ient
Ġir respective
M ark
ĠE ER
Ġcyber war
Ġcyc lic
Ġex acerb
um ar
ĠB ush
Ġont ologies
Ġun amb
Ġste pped
m i
ĠM ah
ĠPassword s
appro x
Ġrem embered
Ġsepar ates
Ġvol atility
OD UCTION
ĠEffect ive
Ġmach inery
loc ate
s ites
ĠX X
n ational
Ġe in
ĠComput e
col or
ĠTr ain
ĠReg ular
ĠC OP
Al so
ou b
Ġharm less
Ġbare ly
Ġsp ark
Ġoptim istic
Ġbad ge
P ort
t ier
OS I
OT S
Ġaggreg ating
Ġsu ms
cle an
let ter
ĠE ye
Ġassist ants
ĠDM Z
ĠT B
b ell
n i
Ġhist ories
b ig
ĠF ine
Ġob j
ĠPIN s
Ġchalleng ed
Ġscreen ing
ex ecution
ĠExt ensions
ĠC CS
Ġer asure
Ġstring ent
w est
ĠM oney
ĠInd ependent
Ġcommit ting
r ack
Ġh amm
Ġinter ven
Ġpri ze
ĠD roid
ĠH ex
rec ogn
ĠAl ways
Ġfulfill ed
Ġdegrad ed
ĠCOM M
Ġinher ited
h acking
Ġh onor
Ġc ro
Ġneighb our
ĠCS IR
Ġwilling ness
Ġanim ation
Ġpred eterm
ĠDisc uss
ĠSE V
Ġtri age
Ġgeograph ically
Ġsens ed
ĠApp lied
g ency
Ġadmin s
Ġweak ly
ĠPred iction
A rc
ĠBr un
p atch
ĠSN R
ri pp
ĠEF F
ĠMechan ical
Ġf ant
Ġlik ed
Ġth ieves
Ġnon zero
Ġass ault
ades h
ĠP apers
Ġem an
ĠCl ub
W orld
o e
cr ime
ĠWeb GL
ham mer
ĠS EO
ĠComplex ity
Ġconf ined
t emporal
B R
ile m
we ets
ĠHam ming
Ġcompet ent
ĠBren nan
ĠDR AFT
ĠIn stru
Ġcrit ics
ĠFlash back
ĠPro c
ĠPR F
ĠReport ing
Ġmet am
li k
II I
K A
t l
Ġsoci etal
Ġinfect s
Ġstick ers
comput ed
Ġpron ounced
ĠM il
ST L
Ġtr ampol
ĠUn iform
Ġexceed ed
Ġunobser vable
ĠCor porate
ĠT reat
st ar
ĠFor um
ĠDo ing
Ġannounce ments
Ġgy ro
ĠP AC
Ġk i
Ġcle aring
step s
ount ies
ĠCH AP
l ate
ĠNo vel
Ġfactor ization
Ġaler ted
Ġparagraph s
pat tern
in tern
Ġwh istle
Ġsl ip
Ġguarantee ing
Ġb aby
Ġinv ite
Ġfet ches
Ġpharm aceutical
Ġdr ain
E MS
ĠInf oS
pt imal
Ġweight ing
S ense
Ġche ating
et ching
Ġc aut
ĠSc hedul
Ġ ÃĹ
Ġassemb led
K F
sm art
add y
I VE
Ġbattle field
ol lo
ep ad
Ġbrow n
Ġexp end
op her
B en
Ġaud iences
Ġop codes
ĠStud ents
Ġunnot iced
Ġcraw ling
im ated
Ġcoordin ating
L ocal
authent ication
Ġa ster
Ġag es
ĠGuid elines
L a
Ġr ings
ĠB ear
W all
ig ue
ĠW rit
Ġunp acking
M ail
ĠAfter wards
Ġlayout s
ĠM AN
ell i
Ġexperiment ed
Ġsub nets
Ġnewsp apers
Ġa i
Ġw iki
Ġsupp ression
ĠT a
ang ular
prot ection
f alls
ĠSIG INT
d am
Ġinv asion
Ġ10 2
L et
in ism
ĠBre ak
Ġlegitim acy
Ġaxi om
ĠScient ific
Ġaffili ate
Ġpe aks
Ġbatter ies
ip h
Ġweb server
ĠMess ages
ĠO ptions
ĠMet rics
ĠV AE
Ġ10 3
struct ions
app y
ĠAS V
Ġt all
Ġeven ing
Ġinher itance
ĠRo om
squ are
ĠPage Rank
Ġbackground s
ĠCre ative
ĠUkrain ian
Ġtraffic king
Ġfoot age
S uch
Ġs v
Ġs and
Ġretail er
Ġdot ted
Ġorchestr ation
Ġgr ace
Ġplan et
Ġvic inity
Ġprosec ut
ĠSc al
ĠSund ay
l ies
ĠRet rie
G ET
Ġfle et
N F
ĠGener ative
Ġwater ing
Ġdesktop s
ĠN CS
m ask
Ġguid ing
Ġincrement ally
Ġdiscrimin ate
Ġro se
Ġbootstr ap
Ġd ive
test ing
ĠA ur
Ġmod ularity
Ġdest ined
ĠClass ifier
fr ames
X T
ĠD river
Ġbur n
ĠLagr ang
ĠM id
priv ileged
Ġopportun istic
Ġg ene
ĠCrow d
ĠIn side
ĠH Y
Ġnames pace
Ġmount ing
ĠRO B
Ġint ract
ic ast
Ġret ro
AP E
ri ble
Ġscore d
vent ions
Ġinterpret ations
Ġphotograph s
EN C
Ġplat oon
ar ity
Ġsp here
ĠG l
no ise
ul s
ou d
Ġpast e
P I
Ġforb idden
ad ic
ĠHam ilton
V irus
Ġar tific
Ġacceler ated
Ġimm ense
c ape
ĠPro s
ak h
ĠRob in
Ġinvestig ates
Val ue
ec onomic
ĠK ill
ram id
Ġga uge
Ġdef aults
Ġmark ers
G DP
Ġw ipe
Ġopt ed
in variant
Ġaff airs
Ġcert ify
ĠWar fare
ĠPay load
ĠWe i
Ġgrad u
Ġperm utations
ĠTrend s
Ġentreprene urs
D own
p ic
ex ecut
Ġopen ness
new s
Ġpack ing
Ġpredeterm ined
ĠAcqu isition
Ġdivid es
ĠV en
Ġtr illion
T ok
ĠDe an
ĠSP F
OT E
Ġstim uli
Ġj itter
ĠStep s
Ġauto encoders
Ġquant itatively
Ġ lying
it ure
ĠSt ock
Ġwrong ly
Ġret ired
prov ided
ĠA x
ĠJ ay
Ġinstruct or
ĠAng ler
ĠHol ly
alle t
ĠR ole
ĠE fficient
Ġport ability
ason ic
Ġqual ities
Ġafford able
ĠW R
ĠMar sh
um ers
Ġh ob
Ġco ined
24 3
ab el
Ġresearch ing
ĠCirc uit
ĠA th
ĠN ik
Ġfat al
ĠSwed ish
S earch
ur k
Ġquestion able
ĠSp eed
Ġexceed ing
ĠBang l
Ġsp urious
ap i
Ġspec ulatively
Ġundes ired
v ectors
ĠS poofing
ĠD ET
ĠLe ague
ab bit
ĠS GD
ĠL FS
Ġmarket ers
Ġh alt
hent icated
ĠEv ents
t ail
Ġtur b
Ġtract able
ĠS her
ber net
Ġpack aged
For ce
Ġdecent ral
osh aw
Ġre ductions
Ġc ow
Ġcheck list
Ġer ase
ict itious
Ġbat ches
ĠLD AP
Ġupl ink
Ġocc asions
cre ate
SG X
ĠMc G
Ġfavor able
Ġrecru ited
Ġresc ue
Ġtel net
comm un
D uring
Ġformat ting
ĠPon zi
D omain
ĠD EL
Ġab road
Ġevent ual
L OC
Ġme g
Ġwr apping
Ġcorrect ive
Ġreg imes
ĠP ER
Ġmal wares
ĠID E
e ared
Ġwith stand
ĠB ird
ĠG reek
Ġhook ed
s ay
U A
ĠS AM
ĠJ u
Ġachieve ment
Ġcyber bullying
Ġet her
Ġquick er
ĠNow adays
ĠEnc rypted
, .
] [
Ġtransl ating
ĠVis a
I ns
writ er
Ġunder graduate
ĠBack Track
Ġdata flow
bu ffer
ĠBound ary
W G
Ġd w
ens ored
Ġgr ate
ĠCor rect
f ollow
Ġsc andal
B it
ĠEarl ier
et t
Ġcogn ition
ĠF ood
Ġperpet rators
clo se
P ath
E r
Ġinter ior
ĠDis closure
B ase
Ġn iche
Ġorigin ates
Ġmicroprocess or
ĠSc ot
12 7
Ġprec ondition
ha o
ĠCG I
ĠLear n
z es
bernet es
aly e
ĠLock y
Ġhaw ks
ro ck
ĠMcD aniel
ĠAir bnb
attack er
Ġpres cribed
Ġretain s
ĠN B
Ġmean ings
ĠH ans
st orm
Ġstr ain
Ġeduc ated
ĠSS E
Ġf oster
ĠK at
Ġlex ical
Ġpreca utions
e g
Ġir regular
Ġderiv atives
govern ment
Ġstr uck
ĠChang es
m obile
Ġre written
Ġtermin ating
ĠU TC
ĠGener ator
ĠN ation
ĠInc or
oj i
h att
Ġ7 00
F orm
ĠU ML
ĠCo hen
Ġtransl ations
C FI
ĠD ual
Ġauthor ize
14 0
Ġc d
h abil
ĠB M
OD E
N E
Ġste als
XX X
ĠF red
ĠSp ear
Ġpump s
ĠPo W
Ġnar rative
al ph
Ġb acter
Ġob s
ason able
ĠPCI e
prem ises
ĠLulz Sec
ĠG CC
Ġarch ived
r ine
Ġweb cam
ĠM om
Ġcare ers
Ġspread s
Ġblacklist ed
Ġprerequis ite
format ics
sc r
Ġworth while
ĠH ierarch
Ġlength y
network s
Ġmail box
Ġw ood
Ġmal es
ĠCAPTC H
ol utions
Ġph on
pat cher
N ext
alu able
ĠUp dates
Ġv ill
typ ed
ĠDef ault
Ġske leton
Ġst re
em ens
ĠPre vent
Ġcul pr
Ġtravel s
Ġelig ible
ĠCybercr iminals
Ġmisbeh aving
ĠComb ined
A meric
ĠN ob
Ġconstruct ive
Ġyield ed
ĠLo Ra
ĠLiber ty
ĠB R
Ġdisclo sures
Ġdupl icated
ĠM ell
T ool
Ġcl oning
Ġneg lect
Ġdegrad es
Ġparam ount
ĠC os
block ing
Ġl uc
Ġfr aming
Ġblack mail
Ġbund led
ain e
Ġexpress iveness
ĠC NS
Ġw er
Ġorgan izing
ver ting
Ġmarket places
develop ed
ĠR ol
ful l
Ġam ort
IC ATION
Ġdomin ance
des cribed
B row
Ġfl uid
ĠRe uters
Ġclean ed
ĠFin ance
c ale
Ġrest oring
ĠDis k
ĠVal ues
ĠN aked
ĠMon ero
r ates
ere r
ĠK a
Ġread ability
ĠR ange
ester day
ĠIter ative
ĠâĤ ¬
ĠT ibet
Ġfin ishes
Ġgest ures
ĠDef ence
el ly
ĠC SA
ang les
200 3
Ġacknowled gment
ĠFour ier
Ġfinanc ially
ĠM ission
Ġev ading
ĠSe a
ac re
Mad ry
Ġp s
Ġartific ially
Ġo ct
Ġmal vertising
Ġbenchmark ing
Ġdilig ence
B o
process or
ĠPers istent
ĠC ra
ĠO s
Ġanonym ously
Ġinter ruption
p a
e a
ĠB ol
Ġsh ops
ĠSp ot
enc er
Ġpractical ity
aff ected
ĠCharl ie
p u
or ry
Ġoccup ants
Ġpan els
Ġs igmoid
Ġpret end
ĠReg in
ĠAs k
ĠUP nP
Ġqu asi
Ġz oom
disc iplinary
j ar
ĠMethod ology
Ġsub str
Ġharvest ing
ĠSe g
ĠPict ures
ĠC DF
Ġeven ly
Ġseam lessly
log y
Ġrespond ers
Ġunf old
ĠG R
Ġdeleg ated
Ġpent est
ĠZ one
Ġg oshaw
ĠD ash
ats on
Ġexcl usion
Ã ¡
ĠSC A
bi ased
up al
Ġinv ention
l inux
Ġtrad ition
list ed
priv acy
ĠNS L
ĠMad off
ĠBr utsch
Ġr h
Ġsuff ix
pro f
Ġvot ed
ad el
Ġuna ut
ĠP AM
RE D
ĠAp ollo
Ġfit ted
Ġexpress es
ĠProcess or
ĠSwit ch
Good fellow
Ġtax es
ĠKey words
ap unov
Ġchair man
ĠH osp
Ġcr ashed
Ġspeak s
Ġmultipl ier
e ach
Ġpurp orted
ĠA ODV
ĠB ooth
ĠX ia
Ġmut ated
Ġplay back
Ġacqu ires
ress ions
Ġperpet rator
ĠFl ip
ĠRE AD
Ġupgrad ing
T op
Ġr d
Sim ilar
ir a
Ġsens ory
Ġadjust ments
Ġc iv
ĠOx ford
Ġre order
Ġlif t
ER N
ĠPort ug
Ġj ava
Ġpop ulated
p ixel
Ġbread th
il lo
D uke
w eek
ĠM ET
Ġpat rol
Ġe ating
Ġl p
ri ends
est yle
hest er
er a
ĠCorn ell
ĠB T
ĠPlay Station
text style
c ur
ĠEx cell
Ġgeneral izes
Ġestim ators
ĠSh an
Ġinstitution al
ĠFing erprint
ic ip
enc ryption
Ġcompos itional
Ġassoci ative
Ġmod alities
Ġconf ront
Ġhonest ly
Ġb ounties
Ġlower case
ĠE T
ĠIN TER
ĠL ipschitz
13 0
c onditions
Ġcur iosity
ed a
Ġre tal
ĠRuss ell
ĠA NS
Ġult ra
Ġav iation
man y
Ġmy th
ĠM R
Ġcont iguous
ĠPubl ishing
ĠEstim ation
qu al
Ġrev oke
Ġpseud onyms
ri ad
St ack
m ay
Ġsandbox ing
sub sc
Ġskew ed
ĠMat the
ĠN FS
Ġdead lock
f ail
s ampling
ĠH old
ĠG lass
un iform
ĠV CPU
ĠSout hern
Ġbr aking
ĠNat urally
est ine
Ġencrypt ions
ĠPer iod
Ġdocument ing
Ġrecur ring
S te
p ired
ĠF amily
oh n
Ġincl usive
av ailable
Ġvacu um
r ag
irect ed
ĠCh rom
gu ided
Ġphys iological
x b
Ġman uscript
Ġpriorit izing
Ġwer den
Ġper f
Ġemphas izes
Ġentr ance
Ġel ite
Ġstack ed
tr l
Ġbis imulation
Ġunman ned
Ġplan ner
ĠS plit
Ġrepro gram
ĠProv iders
Ġb er
Ġele vation
ĠF B
ĠMer kle
Ġch urn
Ġview er
h l
ĠExt ended
Ġmim icking
ĠSir i
con v
de bug
* .
om put
ĠM osc
ĠEx tract
Ġaud itors
Ġf urn
Ġbi ology
Ġint ric
Ġfil enames
Ġfin er
K C
Ġs in
ĠDevelop ing
Ġcl ones
ĠSQL ite
ĠM F
s chool
Ġspec ulate
ĠJ ew
ĠR W
Ġse vent
Ġind ict
ang ers
Ver if
Ġdis regard
Ġw elfare
Ġmis information
ĠKu bernetes
ĠBet ter
Ġint ents
Ġauthentic ates
ĠTelecommun ications
Ġr icher
Ġimperson ating
J SMA
ss on
ĠII S
Ġjo ins
ĠStud ent
ĠTTP s
Ġint ellig
Ġent ail
Ġwant ing
Ġvisual izations
ĠA W
ĠZ IP
Ġstat ech
ĠLy apunov
ud er
determ inistic
Ġlegisl ative
ĠNum bers
ĠOrig inally
Ġjump ing
ĠINTR ODUCTION
ĠS ect
i ples
Ġst ip
Ġsustain ability
ĠR N
ĠPar ameters
ĠHand book
pack et
ĠC ALL
Ġ10 5
ĠBangl adesh
ĠD ead
ĠG a
ok u
ur istic
Ġextra ord
Ġstake holder
ĠRun time
m ical
Ġdepend ability
ĠAssoci ated
ĠGroup s
S R
Ġknowledge able
ĠImport ant
Ġintr usive
OM DP
Ġbetween ness
ĠProb ability
E xt
ĠAnt on
Ġunaut henticated
Ġw estern
ĠCn C
ack ets
cl usive
ĠBer lin
form er
ĠBe gin
as y
Ġqu ot
ĠAccount ability
M obile
ĠKe eping
ĠA IC
is crimin
Ġsub st
7 00
um ed
Ġdiscretion ary
Ġdistribut es
ĠPrinc ipal
Ġanc ient
ĠL N
Ġinf inity
Ġdown grad
Ġbreak through
Ġstri king
Ġpo ker
Ġpr imes
Ġver b
ĠEn igma
g ar
ĠL TS
Ġspokes person
Ġcl ipping
Ġlast ing
ĠQ U
Ġreserv ation
p cap
wik ipedia
Ġimag ery
Ġnotor ious
ch osen
r ules
Ġinf amous
Ġl b
f in
ut r
rop ol
Ġalph a
Ġconcaten ation
Ġd ry
Ġden ying
ĠAt ari
ival ent
Ġpun ishment
Ġ1 12
P LC
ĠS ab
fe atures
h n
Ġpul ling
ĠAuthor ization
ĠB ow
Ġexp ed
ĠCOM P
o ption
Ġk ing
ĠK o
Ġfall en
ĠM ut
Ġfar m
Ġtrans ce
Ġsubscrib e
ĠPerm ission
ĠSchmid t
Ġs le
ĠB ACK
ĠFl ame
ĠS B
Ġdist ortions
Ġalar ming
ĠUEF I
un ed
Ġun com
ĠP and
ĠCI O
t ar
ĠS ensors
ĠC eleb
ĠB ed
g ical
w a
Ġ1 11
bers ome
at om
Ġintr igu
ĠRoy al
ĠLagrang ian
N ode
ĠWh atever
Ġparallel ism
Ġax es
Ġor g
ĠMonti Arc
ĠC lear
pro xy
ĠPrevious ly
c over
ĠE B
Ġstim ulus
Ġconclud ing
ĠBench mark
Ġpo pped
Ġfl ux
Ġhot els
Ġslo pe
ĠTrad itionally
ĠAn sw
ĠGo ing
Ġ12 5
Ġprec onditions
ĠExper t
ĠR isks
PR O
1 12
Ġded uction
ĠNeg ative
appro ved
Ġembr ace
l on
f und
Ġdepos its
ĠT rip
Ġlater ally
Ġnone x
RE AT
ĠB eng
ĠN D
effic acy
ĠZig Bee
ĠT T
ĠH ad
Ġh on
ĠH A
Ġrecruit ment
Ġunint entionally
o ly
an ium
ĠC MS
Ġr am
sequ ence
erv ous
Ġincred ible
Ġo kay
Ġli able
Ġam ate
ub es
IG HT
Ġn a
Ġprompt ly
URL URL
Ġd orm
ĠACL s
ĠB uzz
ĠConf icker
ĠNets cape
r m
xy gen
ĠPR I
Ġsw apping
Ġhook ing
ĠFort une
AV s
se q
Ġloc ality
on line
Ġinquir y
Ġp up
Ġadapt ively
olith ic
Ġf ictitious
ĠV ANET
aw ei
ĠPh oenix
, âĢĻ
for th
it o
Ġsc ar
US H
- (
ribut ions
Ġcatch ing
ĠP urch
Ġlot tery
read ing
ĠPo C
pred iction
Ġreg ener
Ġrem inder
ĠCI s
AB IL
act ivity
ĠK ot
The ore
Ġadv ise
Ġspam ming
y our
Ġow ing
OM E
Ġac ron
ĠLew is
Ġo vere
Ġn uts
H R
ĠJ VM
Ġtra it
Ġbad ly
ĠCra ig
Ġcum bersome
Ġins ulin
Ġdel ta
Ġd ilem
ere gr
ĠN elson
Ġinform ally
Ġagre es
- )
Ġp our
h as
Ġtel esc
Ġthere in
ĠV O
Ġadv ancing
Ġredirect ing
ĠVend or
D Net
MS EC
Ġsubsid iary
V C
ĠN est
Ġexploit ability
k an
cont inu
Ġne f
Ġoffsh ore
Ġimp osing
urre nce
em ies
Ġfun ny
ĠCl ar
Ġper tain
AR Y
w ill
con tract
y tes
ĠI ce
Ġbip art
ĠAcknow ledg
Ġsp are
ĠLe ft
Ġce ase
ut il
Ġsp ies
Ġcolle ague
ĠAS IC
tain ment
ĠK am
Ġsm oke
Ġdeter rence
Ġmisconf igurations
An y
habil itation
Ġdupl icates
Ġsemic onductor
ĠL if
Ġnumer ically
ĠSO AP
Ġrepet itive
ĠInfoS ec
Ġenvelop e
Ġfore see
ĠSw ig
Ġrestaur ants
10 2
p ad
Ġsu bo
ĠRes ult
at ural
ĠEl astic
ĠAdvis ory
pk g
V P
ĠSi emens
Ġwrit able
Ġtrade offs
ĠSuccess ful
en berg
ĠF D
ĠLe Net
Ġimm unity
ĠI ron
ĠC yp
ĠProt ecting
Ġfals ified
Ġproc ure
Ġproject ions
f our
ĠD estination
be fore
ĠJ ean
ĠChrist opher
ĠSh ut
F ire
Ġluc rative
ĠW ales
Ġarsen al
ĠDef ensive
Ġstri kes
t ope
ĠH an
Ġref r
Ġtail or
Ġb le
ĠT ier
am ber
ĠM oss
ĠMor ris
ĠC itiz
ĠSP L
ok ia
ĠTh under
Ġpus hes
run ning
d ict
ĠDec eption
ĠMich igan
ĠN aval
co operative
ĠStrateg ies
Ġsong s
m ir
Ġpret ending
ĠE sc
re view
Ġpass ports
i lot
ĠH oney
Ġcl ue
Ġlike wise
Ġor ange
ĠD if
pl ac
Ġt issue
Ġg it
Ġst upid
Ġp unct
am in
Ġsc attered
l ag
ĠV lad
Ġel der
ric ane
] :
Ġnon compliant
Ġtake over
Ġtem p
b orn
Ġal b
ĠW atson
Ġhe s
Ġe ager
Ġsub pro
Ġab using
ĠDe veloper
Ġenjoy ed
ĠT unnel
ch ost
ĠH S
ĠN i
ĠAnaly zer
Ġreact or
Ġshap ed
ĠTech Republic
h ist
s hip
Hel lo
ĠV ers
m able
Ġt ension
Ġm it
Ġhop ed
Ġhard ness
ĠDr upal
T wo
ĠD ar
Ġunc or
ĠSequ ence
Ġsp ends
ĠJ ama
Ġdead lines
Ġaven ues
int ed
ph i
Ġsquee zing
ĠS ales
se par
j i
ĠW ild
Ġund irected
Ġimp air
ĠVer ify
n um
ĠP IR
pos ing
Ġreus able
p resent
conf igured
Ġk in
ĠW el
Ġmy riad
Ġclass room
ĠRep orts
ĠD omin
Ġre vert
Ġem ission
Ġsub group
Ġinters ections
Ġcol oring
ĠCheck ing
He alth
Ġdump s
ĠHar ris
Ġsc roll
Ġrecru iting
R out
ĠMor gan
H and
Ġoptim isation
urer s
Ġinfinite ly
ens itivity
rep udiation
Ġmultip ly
Ġ" [
Ġsub mits
Ġquestion ed
p n
Ġinv aluable
ĠSM E
yl van
Ġremed y
99 9
ferent ial
ĠH M
Ġgather s
ĠF DA
Ġk Hz
ĠCon stitution
Ġeconom ies
ĠS Us
Ġover writes
Ġcult ures
VID IA
he ast
ĠL ines
od d
Ġed itions
Ġtravers ing
ĠP ossible
Ġrepe ats
l ection
im ation
ĠM OV
ĠB ag
Ġexp ands
Ġelabor ated
ĠViet nam
l n
Ġc ensor
ex c
Ġnef arious
om er
Ġreal world
Ġbe acons
ĠB U
Ġchain ing
Ġcondition ed
Ġautonom ously
Ġje opard
Ġlabor atories
ĠM Q
ER C
Ġmarg ins
Ġlawsu its
Ġsu ed
ĠCamp aign
ĠU ID
Ġstreng thening
Ġmisbe havior
ear ing
S ource
ĠT em
ĠT ry
Ġdist orted
ĠBroad cast
Ġm ountain
IG N
Ġref und
ĠPract ice
ĠT act
ĠSophos Labs
ĠAnd re
C ons
Ġmot ive
ĠPower Point
01 0
Aut om
ĠG reg
P od
f lu
ns ylvan
Ġopp osing
Ġfamiliar ity
Ġcaut ious
ĠSol idity
neg ie
Ġre train
Ġtunnel s
ĠPract ices
ĠMosc ow
Ġpip el
ĠProject s
Ġmicroprocess ors
ĠT ok
fore ns
Ġdisapp oint
Ġspac ecraft
represent ed
Ġhome page
OW S
pe ople
Ġindic ations
eck er
ĠG il
ĠCur ve
ĠEH R
ĠG W
te es
Ġnet list
ĠLim bo
R ed
ĠC ov
ĠConn ected
Ġpun ish
Ġregistr ar
ch ild
AT CH
Ġcopyright ed
ad ium
Ġun initialized
ĠYe ah
Ġn ervous
a uthorized
Ġp ec
ĠR od
Ġcryptosystem s
tool s
Ġrecogn izable
ĠOB D
ĠR os
ĠR oss
Ġcred its
FT WARE
ĠP sych
ĠC ube
ĠE ternal
Ġjail break
ĠR ISC
Ġdef ective
anc he
m or
Ġatt ended
ĠG EN
Ġhur d
ĠS ites
ĠG ib
ĠAud io
Ġconcaten ated
, '
C all
Ġpiv ot
ĠD id
sp y
ter min
ĠB art
Ġprol ong
Ġpedest rian
ĠN EC
Ġinter fering
ĠEx c
ĠP etya
Ġrec overs
ĠSever ity
vulner able
Ġ ions
Ġs inks
Ġre using
log in
Ġmicro controller
ĠCar negie
ĠBul let
) \
aa aa
Ġflo ppy
ĠLog in
Ġdown grade
on ce
back s
Ġvo ices
ĠProced ure
Ġm ock
Mod el
X SS
Ġhard en
ĠRES UL
Ġare na
Ġargu ing
Ġe gress
ĠR EP
Ġclo ses
Ġspons ors
log ical
ed s
ĠN FV
Ġpol es
Ġpercent ile
our ne
ĠSO A
A ction
Ġm ild
Ġperson a
Ġconcept ually
V A
ant e
On ly
Ġsp ikes
! )
Ġd d
ĠS omething
Ġsp ell
Ġlong itudinal
h al
are to
Ġpar ses
Ġtwe ak
Ġaccompan ying
Ġinstant aneous
et ers
Ġcorrupt ions
Ġser vic
Ġph p
Ġde ploys
ĠL ot
th ora
Ġimp rec
ord inate
Ġillustr ative
ĠEngine er
Ġnon etheless
Ġre name
Ġprec ious
Ġst ale
ĠH ay
ep s
Ġroad map
Ġback ing
Ġsl ide
ad get
Ġtool box
ĠB uff
( âĢĺ
} =
St ream
ĠPen nsylvan
Ġcardinal ity
Ġy i
co hol
Ġalter ation
Ġdisc ern
Ġun forge
ĠFin land
ĠS ound
Ġecosystem s
ĠW I
ĠD ISC
Ġev al
Ġthere of
Ġbuck ets
I o
Ġint im
ĠHu awei
ĠAP s
ĠScen ic
Ġtool bar
ĠGener ating
Ġpl ag
Ġclo aking
cl aim
FL O
y o
Ġ19 81
ĠS AE
Ġer ased
ĠiPh ones
ID F
do i
ĠLog istic
0 80
C ard
onom ies
ĠOpen ID
ĠCom plete
ĠFuzz y
Ġy outh
ĠPo ints
Ġz er
Ġaff ine
Ġexponent iation
Ġconscious ness
ad or
ĠCon sole
( [
ĠAl to
D ES
V ICE
s ometimes
ve y
Ġmis under
ĠRepublic an
keep ers
Ġsat ur
ĠEv idence
Ġinterdepend encies
plac ian
ĠM apping
pl ug
Ġpack er
Ġoccup y
ĠP s
Ġco herence
Ġcr u
ition ing
Ġback propagation
com mit
Ġevic ted
ar rival
Ġy esterday
M ain
ocu ous
ĠC art
Ġextens ible
Ġhamm ering
g el
Ġmoder ators
Ġmisconf iguration
Ġx or
plex ity
Ġd inner
ap ache
Ġft p
Ġpop up
host s
ĠL ik
Ġarrang ements
F usion
Ġf iring
em e
Ġ' '
Ġrepro duced
ĠM OS
Ġpo le
ĠAdvers aries
Ġper miss
ĠTele gram
ĠAtt ribute
ĠE t
Ġ10 6
J ava
us hed
E nt
Ġstay ed
Ġhous ing
ĠUn its
AR S
Ġg amb
Ġvisual ized
et a
ĠD ong
Ġunre achable
Ġprot ein
Ġtri ps
ĠN VIDIA
e er
Ġsens ible
ĠS ensitive
ĠF ool
ĠSte am
Ġco erc
ĠRT T
Ġtow er
ĠM en
th an
Ġ13 0
ĠPract ical
Ġcontrad iction
inc ent
ĠPennsylvan ia
p otential
Ġ[ ]
Ġtra pped
ĠFI PS
hou ette
Ġd rew
Ġtom orrow
uss ed
Ġcy l
p ng
pr one
ĠAur ora
av ier
w alk
Ġmic row
D r
c b
B IN
Ġclo thes
Ġtutorial s
ĠIns pect
Ġnort hern
at um
ĠRow hammer
ĠC ry
ĠF ord
ĠDr agon
Ġst ocks
Ġexpos ures
comp onents
Ġbeaut y
ut y
ĠAnaly tic
Ġnondeterm inistic
B erry
g lass
ĠC ognitive
Ġpass age
Ġprogress ion
th ink
Ġd ocker
AR M
Ġdetail ing
Ġmanufact ure
L ear
Ġsec urities
ord ered
Ġbre at
ĠOut line
Ġspons or
ĠMan ip
ĠAnt h
il a
OD S
ĠBrazil ian
Ġa erospace
ĠSurve illance
Ġwork shops
Ġflood s
S am
Ġpolit ically
Ġshuff le
lo e
Ġtelec om
ol ly
Ġcan ary
ĠAll en
ĠDo ctor
Ġplain texts
Ġliber al
ĠR ot
Ġmicro sc
ĠSM Es
ĠDel ay
ri k
ĠL p
Ġhierarch ies
Ġsne ak
B T
c pp
p ared
s em
am oto
Ġho ax
Ġexhaust ion
Ġcha os
E nd
Ġc ripp
Ġout door
Ġcrowds ourcing
Ġcircuit ry
ĠExper ience
Ġsm arter
Ġkey boards
Ġcompan ion
Ġrad ical
arb or
[. ]
ĠM s
Ġbu zz
Ġab rupt
Ġbl inding
ĠTempl ate
ĠPrem ium
c ategories
ĠA LL
Ġsil ver
vid ia
> <
Ġple thora
A IN
Ġrig id
Ġ( [
Ġthere after
Ġ9 00
Ġcount less
ĠPri ze
Ġproof ing
ick ed
ĠCl aim
Ġsub vert
Ġbu ilder
Ġf ut
Ġprof ic
Ġdark net
B FGS
ĠP F
Ġunf amiliar
ĠRev olution
xi ety
ro gram
Ġa kin
ĠICS s
ĠMalays ia
D is
Ġslow ing
/ )
ĠAtl anta
ĠF ew
ĠRout e
ĠNETWOR KS
ĠC PA
ian a
es p
Ġpo isons
Ġcollabor ating
ĠSy ria
Ġtox ic
G PU
Ġ20 48
ĠPK CS
Ġfabric ated
as ks
Ġinn ocuous
ĠImplement ing
24 0
Ġvast ly
ĠZh ou
ĠSto chastic
Ġn ave
Ġt ighter
Ġdat ed
az a
Ġad missible
Ġwire t
ĠLe ak
Ġlem mas
ĠScan ner
ĠCHAP TER
ĠAP P
S W
c ipher
Ġrecip ro
Ġ( -
ak is
H ash
ĠS us
fl are
Ġa ids
Ġk ios
Ġdef ect
Ġdem ographics
ĠT oken
ĠKn own
Ġins ecurity
AT IONS
Ġsecret ary
ĠDep loyment
Ġpredomin antly
rim ental
M ac
ĠEmpir ical
f aced
Ġag ility
Ġampl ified
Ġnegot iate
Ġlogarith m
h ub
ĠW olf
ĠInter cept
S HA
V ec
act ing
ĠO ri
lass ified
Ġsimpl ifying
ĠIn struction
up y
ĠSc anning
ĠPal o
ĠIllustr ation
ĠA round
Ġv eter
and roid
Ġacc us
reng th
Ġs ick
ĠC ast
Ġenroll ment
upp et
ĠR atio
ing e
requ ently
ĠNew ton
Ġdisturb ing
Ġdeprec ated
ĠEns emble
ĠRein forcement
ĠVer i
ĠMIM O
ĠB ody
ĠO EM
Ġi j
Ġstealth iness
ĠG as
Ġmus cle
ĠA AD
O K
in jection
ĠD FA
am os
ĠA st
Ġreg ulator
Ġair line
Ġrepro duction
ec ks
Ġtw itter
E nergy
ĠHT LC
ĠRo bo
ĠAtl antic
and ex
OS P
ĠTrans formation
ĠSc reen
ĠChrist mas
ADI US
Ġlo ans
art ial
Ġdec oys
Ġtim ings
Ġimp rison
grap her
c onduct
a ire
Ġg all
Ġtroubleshoot ing
ĠD QN
S k
Ġqual ify
ĠNum erous
Ġar te
Ġsubgraph s
as ets
Ġaud ited
Ġcompar atively
Ġhypothes ize
ex ploit
dig ital
Ġrecurs ion
thread ed
Ġs urre
Ġpar liament
ĠQuest ions
ag ain
Ġprogress ively
Ġur l
Ġpeace keeping
r age
st atic
ĠM other
Ġpip es
Ġeleg ant
ĠB rief
ĠN okia
ĠMotiv ated
ĠUn ified
ab elle
ĠNear ly
H O
ĠG row
ĠBP DA
ĠD og
Ġnormal ize
Ġd ur
Ġr ush
ĠDet ailed
ĠLa placian
9 00
Ġmultipl icative
ĠProduct s
oc s
ĠHel p
Ġlogarith mic
ĠNe ither
ĠP SN
Ġcap s
Ġ27 001
f ive
Ġyour s
Ġel apsed
AS R
Ġmand ated
Ġdisapp eared
Ġtest im
Ġspray ing
Ġre install
im ages
ĠB AS
ĠSM Bs
Ġmut ations
ĠCAPTCH As
. :
od el
Ġmasquer ading
ri age
Ġabstract ed
ĠPub lication
int he
mod ule
compl iance
enc oded
ĠT error
ĠCP E
ĠClo se
ĠR D
ov al
Ġtransist or
m ac
Ġtr ash
Ġbl end
A K
Ġdet rimental
AN CE
ĠCons ortium
Ġtunnel ing
Ġst ressed
ĠIn stant
13 5
ĠT y
Ġharm on
Ġla zy
! "
ĠF AR
dis k
if ts
uct ions
Ġgre p
it ic
ĠEqu ipment
ĠTRAN SAC
ĠIs lands
cons cious
Ġappro ve
CP A
Ġboost ing
Ġcounterex ample
Ġwon dering
ĠProv ide
C lick
ĠInter action
ĠL ittle
ĠCor relation
ĠM ong
Ġed its
Ġd ir
Ġk et
ĠN ak
ri z
ĠTr ick
iction aries
IC T
ere nt
Ġbe ll
str ateg
ins ensitive
OR E
ĠLi ang
O per
M ult
Ġfrustr ation
Ġlink age
ĠCS V
Ġresidual s
ĠT ouch
Ġconsult ants
c ategory
Ġexplore r
net t
ĠS ud
3 01
t ables
ĠCeleb A
ell a
Ġmal formed
Ġhol iday
ĠBL ACK
Ġdenot ing
Ġtap es
sv g
r ically
ĠMet ric
Ġglass es
z one
Ġwhe els
l ie
Ġt anks
Ġrequ ester
itect ures
Ġc ere
ĠL ar
Con v
Ġf onts
Ġad mits
Ġwas ted
ĠDis play
ĠResp ond
Ġintract able
V IE
Ġwar s
ON E
Ġann oying
Ġdeclar ations
T erm
p aces
ĠBr ain
aked own
Ġne at
Ġim itation
Ġsp ans
Ġdel im
ĠDis ney
co ok
T echn
ĠHe ader
Ġthre w
Ġf iguring
Ġrespect s
Ġbil inear
Ġl ad
ere n
ĠPl ans
Ġendors ement
Ġi ii
Ġvolunte er
ip ras
Ġaltern atively
Ġreport ers
S he
Ġaver ages
Ġtransparent ly
Ġimproper ly
Ġg aze
ĠCustom ers
un ami
ĠR I
Ġlocal host
ĠKer as
Ġabsor b
at ics
ĠE A
Up date
ĠF oot
Ġanonym ization
Ġmet aph
ĠBack ground
ĠImport antly
ĠA U
channel s
T e
Comput er
Ġo s
Ġis t
ĠC as
Ġdis ables
Ġmis used
Ġethn ic
ens ible
met hod
Ġlack ed
Ġdemocr acy
ĠFunction al
ĠM ov
Ġtouc hed
ĠPass ive
ĠSt ory
ĠCybercr ime
Ġnecess it
ĠG ithub
ĠSt yle
Ġstrugg ling
Ġdirection al
grap hers
jail bait
Ġb lob
ĠS ave
j an
ĠL OC
Tr ue
Ġf s
Ġall iance
medi ate
S y
Ġbre vity
Ġmicro phones
Ġresol ves
ĠTim ing
ĠLaw rence
Ġcust ody
Ġatt ained
Ġph ish
FI LE
ĠATTACK S
yc lic
ĠThom pson
Ġn in
pec ific
er ts
Ġw ine
ĠC RE
Ġdilem ma
int r
ĠIC C
y i
Ġtcp dump
Ġunpack ed
resil ient
Ġelder ly
, ,
Ġsn ow
Ġo mn
Ġinter rog
Ġmin us
Ġsur gical
ĠPre par
Ġmar itime
ol ve
Ġdepart ure
Ġt ar
ĠCap ability
ĠBusiness es
vi olent
Ġloyal ty
f ind
oc ode
ĠSo on
ar in
IG H
ĠObject ive
Ġbirth day
Ġdefic iencies
ple tion
aus ed
Ġre per
k t
Ġlo b
Ġrandom ize
Ġoccasion al
es is
Ġv andal
Ġvers atile
Ġcounter intelligence
ĠRB AC
ĠFN R
Ġg ut
ĠSur prisingly
ĠEnter tainment
" "
Ġout let
Ġnon trivial
11 3
ĠSchne ier
ĠC up
ĠX ie
Ġuna uthor
ĠC ob
ĠF u
Ġan ger
Ġm ood
ĠCI SA
ĠCR S
er pt
Ġexc erpt
RE AD
ĠInte ger
Ġmasquer ade
ĠJon athan
aw a
Ġac yclic
Ġcount y
Ġident ically
ĠP seud
Ġev ac
Ġar ts
Ġdoct rine
ĠRecon naissance
GDP R
ĠHolly wood
ĠV ent
Ad min
Ġsupp lying
ĠST M
hand ling
ĠTe ams
D ig
d c
ĠF SM
block s
Ġcomp osing
pro ced
ĠDS L
re pl
Ġfollow er
Ġsm ile
Ġboot ing
us al
Ġco ex
Ġslic ing
d B
r ather
Ġcom ic
Ġlow ering
14 4
Ġgold en
ĠComprom ise
ĠS ense
con text
ĠGener ate
ĠH op
ift een
Ġcorrel ating
Ġunauthor ised
ĠSt aff
ĠIN C
ĠSR AM
Ġkit chen
ass y
Ġdetect ability
Ġab norm
ik it
Ġund ef
ĠRep e
Ġsanit ized
ĠSl ack
2 24
B r
ĠD D
Ġmeaning less
LA SS
Ġenvision ed
Ġun affected
po ison
ĠSte aling
v oc
Ġnot ifies
ĠD ot
ĠK NN
ĠAl ert
ĠAtt ribution
3 60
Ġpec uli
ĠZ ombie
omb ies
ĠMembers hip
Ġintermitt ent
Ġj mp
Ġplant ed
Ġdec idable
Ġlist ens
ĠCh loe
Ġshut ting
Ġspecific ity
TI VE
Sec ond
ĠG ates
Ġinc ap
ĠImpro ving
@ @
ĠPl ace
ĠVulner able
Ġattend ees
Ġvac ation
ĠCl ustering
ĠGen etic
Ġexp ire
ĠAr gu
Ġshort ened
i ology
ĠL ind
CL US
Ġun e
Ġche que
L ee
Ġun link
Ġch root
Ġsoon er
Ġattract ing
SN E
Ġindefinite ly
Ġun law
V ol
ĠC RL
Ġind iscrimin
ĠCy cle
Ġten ants
ĠFact ors
c uts
ĠM un
SP s
ĠCrypto Locker
lig ible
Ġscr aping
Al gorithm
Mal ware
ĠU m
Ġadvantage ous
acer out
Ġf ib
ĠT ang
ĠK le
ĠBlack Berry
Ġenthus i
C arl
ĠD re
Ġshow case
Ġstret ch
AR A
Ġunc onditional
Ġpir acy
Ġt iers
Ġmon olithic
Ġtim eliness
Ġinf osec
ĠRe venue
ĠAr med
Ġdec ipher
ĠK P
ĠPrinc iples
ĠU M
L D
j pg
ĠB oy
Ġrock et
Ġun biased
Ġvib ration
ĠColor ado
C reate
14 1
Ġmaintain ers
ra fts
Ġign or
ĠImpro per
m t
r ames
Ã ¼
Ġoverload ed
C ount
ĠF isher
ind ust
ĠC AD
Ġfiction al
Ġinitial izes
Ġconc ert
Ġmn emon
r ays
Ġ19 79
Ġlit igation
Ġing ress
Ġrent al
ĠRe pl
ĠPart ial
ĠTR ADES
Ġaccum ulate
Ġcle arer
Ġrad ios
arent ly
Ġmeant ime
Ġs ilo
con tained
Ġpre print
Ġfl ights
Ġ 0000
igh th
ĠGener ic
R oot
ch i
led ged
Ġc ube
RF C
Ġan xiety
ar on
ad aptive
Ġcal lee
ĠTRANSAC TIONS
I EEE
Ġquant ifies
ĠExplo iting
oft he
Ġop acity
ĠMANET s
Ġjudg ement
ĠMatthe w
PR INT
IC AL
Ġair plane
F D
um ns
rupt ed
ung s
ĠPon emon
Ġf art
ĠCon struction
Res Net
Ġsu its
ĠD ir
Comm and
Ġat h
Ġch ron
aps es
ĠPol it
ĠBr ad
ĠProv iding
Ġpursu ed
ĠWh it
Ġsn ake
ĠIN T
ĠMus ic
Ġsy bil
c red
Ġre trained
Ġun al
ĠMus lim
ĠGn u
Ġen larg
Ġrec re
ĠT err
Ġground ed
Ġbright ness
Ġmanage able
Ġland mark
Ġhor iz
Ġinvari ance
ĠJud ge
ord an
ĠEnt ry
r r
Ġa cid
ĠPoison ing
Ġdivers ification
l iminal
ĠX iao
lu ence
ĠM illion
Ġob ey
Ġass ists
ĠAr c
Ġt ube
duct ive
Ġw inter
ĠAM T
ĠPrinc iple
Ġlo ved
H ttp
m atching
ĠLight ning
Ġblind ly
ĠP N
ĠP ing
ĠN iger
Ġport als
18 0
TL M
gh ai
EN IX
ĠMir age
Ġfall back
ĠA AA
Ġtr aps
Ġminim ax
e ing
Ġovere st
ers ey
arg on
Ġext rem
ĠWar ren
ĠRESUL TS
Ġret irement
ĠN ature
re use
Ġs q
ĠI G
ĠD uck
Ġir on
t oken
ĠB on
ĠCh anging
on ge
se ed
Ġcompet ence
ĠCON TR
re ach
Ġintern ationally
A H
IS H
Ġhaw k
Ġautom obile
el a
Ġoverl aps
ĠMell on
Ġun specified
ĠF if
ĠG er
Ġdoub led
quant um
ĠM ask
Ġqu it
inc reasing
Ġoff ending
Ġin ception
Ġinf ers
Ġspeed up
m ad
rem ote
Ġultr asonic
Ġfurther more
Ġpropos itions
c ustom
ĠP SO
Ġany time
rastr uctures
Ġstri ve
Ġexperiment ing
ne ighb
ĠD SA
Ġval ves
ĠCS F
ĠNor way
Ġbankrupt cy
s ingle
Ġthrow ing
Ġrelig ion
all ed
asser stein
Ġimmut able
ĠK oh
ĠCrypt ology
AS LR
ov o
rec ord
an alyst
ĠTh reshold
Ġur gency
Ġchecksum s
Ġwhistle blow
ĠExcell ence
D addy
um ann
Ġen acted
Ġfe ars
Ġend less
Ġformula e
Ġad versely
H ence
ĠSOC KS
w er
Ġremed iate
ĠLabor atories
ĠVM M
Ġorganis ational
Ġunlock ing
ĠScient ology
U X
ĠF BS
ro oms
Ġshell s
Ġun know
bound s
ĠCost a
ac s
Ġn p
VIE W
Ġs its
ĠUn ique
ĠAc celer
Ġneighborhood s
Ġo xygen
av ors
ĠPar allel
ĠEl se
ĠH W
pr act
O J
ĠM ul
Ġab uses
s q
Ġp eregr
Ġh us
Ġfor ks
Ġstem ming
lock ing
Ġrepl ied
Ġtrace ability
Ġorigin ator
mon itor
Mem ory
Ġtreat ments
ĠR om
ce ls
ĠD riven
Ġco pper
D ocu
ul n
ĠH ung
ĠN F
Ġdomin ating
ĠAl i
Tor ch
ĠNic olas
Re LU
Ġwhitel isting
Ġrot ating
Ġso ut
Ġunc lassified
Ġearthqu ake
ĠFor ces
Ġconsolid ated
EN CE
S afe
Ġrot or
And roid
ĠCount ry
W W
Ġde put
ĠSt one
Ġliter al
ĠAust in
Ġsurre pt
n ered
ĠChild ren
Ġmistaken ly
Ġneg lected
a verage
s d
at ting
ĠPear son
r ule
ro ute
ĠF actor
wit ting
Ġspaw ned
ĠScot land
M c
Ġang ular
M ENT
Ġstud io
ĠIs abelle
ĠCommission er
Ġexfiltr ated
isp ens
ĠP areto
w at
b or
Ġpar as
ĠObject s
Ġanch ors
Ġbas h
Ġinterpret ability
g mail
Ġsatisf iability
ĠAlex Net
ĠW E
ex istent
Ġcor ollary
enc rypt
p ed
hold ing
Ġsw ift
Ġcontroll ability
Ġinvalid ate
Ġcust od
al ert
ĠG L
th al
) [
ĠSub section
Ġcentr if
re pe
Ġcorrel ates
W C
ĠE MS
igu el
ĠRO I
Ġinf lation
> >
or ous
Ġmisconf igured
I FT
ud ge
ĠOS Ns
Ġillustr ating
j u
ĠBelg ium
ĠChrom ium
Ġsem inal
n odes
he v
as ant
U ZZ
Ġy ang
ĠDes cent
yn e
li ver
ĠPan el
umer ical
ĠOpt imal
er preter
sc aling
Ġbypass es
Ġarr ange
fr ac
Ġrenew ed
ĠMin im
ah n
ight ed
Ġrep r
Ġbub ble
F ilter
p her
Ġre fere
er ves
Ġsix th
ĠCon cer
comm and
S ize
on to
ĠCloud flare
direct ional
Ġinv asive
med ia
Ġim min
Ġsol icit
Ġste el
ĠCont act
Ġmonot onic
ĠP ot
Ġintr anet
23 8
DI FF
ĠB OP
ĠSe ason
ung en
ĠActiv ities
ĠCold Fusion
prior ity
11 9
Ġmil est
ĠChen g
Ġintrigu ing
ĠI ly
Ġcr azy
Ġlob by
Ġs ql
ag ements
ĠV ar
Ġun balanced
ast y
Ġcrack er
Ġatmosp here
o ir
Ġf ence
Ġcorrupt ing
ĠHot mail
iv able
Ġrest arts
ĠLe on
ĠI B
ĠI NS
ell ite
Ġstrengthen ed
ĠS om
Ġ" .
Ġentire ty
Ġur ge
R SA
h ave
Ġgr avity
row s
Ġsuper position
Ġexha usted
irm ware
Ġmaneu ver
host ed
n ull
Ġfore ground
Ġeconom ically
U DP
Ġprot e
ĠTs ipras
Americ an
g on
Ġind ucing
ĠGo og
AL U
ĠFin n
Ġquiet ly
F TP
r ace
an umeric
ess ing
hes es
s ent
Ġconstruct ors
ĠSer ial
ĠPol and
Ġout source
Ġestim ations
Ġboot loader
ĠD Y
op ing
Ġresol utions
H F
O ff
class ification
r v
Ġjud ges
3 86
Ġun fortun
ver ter
Ġst a
Ġnot ifying
app s
Ġce iling
ĠRel ay
Ġgrad ual
w ind
ĠW is
Ġd ictionaries
Ġad mission
o W
Ġoverl ays
Ġshe ets
if ted
gh an
Ġro yal
ĠTS X
A g
ĠP ier
ole t
ĠExplo its
Ġpit falls
ĠAnth ony
is ations
AR CH
ĠSen ator
ĠHor izon
Ġleg s
ĠM IC
uck s
Ġgrate ful
Ġcomp artment
ĠSy rian
ĠSmart Things
ĠSil icon
ĠT am
Ġtools et
Ġal cohol
Ġprogress ive
Ġtack ling
Ġouts ider
ĠWay ne
ro uting
Ġv ictory
ĠQ i
Ġpand as
ĠMic ronets
ie h
Ġwatch dog
Ġundert ake
Ġearning s
Ġgr ass
Ġrigor ously
build ing
V e
Ġ1 15
P ublic
y r
Ġfunction ally
Ġht ml
c ient
ers hip
Ġp ig
Ġdefe ating
2 10
ĠD ad
inst ein
ĠW orm
Ġstri pped
ĠRoot kit
a ux
ĠD ro
ĠK az
Ġ( #
ĠB atch
Ġins ured
ĠSec re
Ġdelay ing
ĠCAP EC
f ight
P II
ĠW ong
al d
ĠU AP
Ġp added
Ġsumm ation
e em
ĠF usion
ĠO cean
ĠWil son
A ES
Ġdis information
11 4
Ġfill s
ĠGra ham
im odal
ĠTo y
Ġb ure
ĠY ao
S GD
ĠM ind
13 6
Ġcomprehen sion
charg ing
er onaut
ĠE cl
Ġblack listing
Ġwa ited
Ġb idding
ĠI OS
Ġunfortun ate
ad t
ĠE BP
Ġinstant iations
Ġbottlen ecks
Ġqu bit
offic ial
Ġrelay ing
Ġen emies
Ġstr ands
ĠM iguel
ĠRem ed
Ġhom eland
RO ID
Ġoptim izes
ĠCer ber
organ ization
Ġmolec ular
Ġsyscall s
Carl ini
st on
ĠZ ucker
Ex ec
ĠMon th
Ġintim id
E urop
ĠN ick
Ġconvenient ly
Ġmot ions
ĠCamer a
uck oo
Ġsleep ing
ass uming
Ġbug gy
ĠUn known
ĠB ab
Ġwr ist
Ġsym metry
Pro c
ĠBr ute
Ġwitness es
Ġelectron ically
ak i
Ġs ister
N O
Ġw est
ĠCapt ure
Ġtime frame
Ġt on
ĠGo Daddy
Ġinterview ed
ĠCL I
Ġpr ag
Ġassist ing
Ġsubscript ions
L ow
M ed
Ġadmin istered
Ġclean up
Ġmir rors
Ġl ux
ĠLED s
ĠIndividual s
Ġnum b
ĠNot able
P ower
ec a
ef fort
bre w
P O
V ir
Ġtoler ant
Ġdupl ication
zon a
Ġfal con
V AE
s ql
ĠVictim s
ĠT urn
indu ced
f ault
ĠGovern ance
ĠUlt imate
Ġs ig
Ġr ural
vic tim
ic ulous
ex ec
df und
em ption
Ġaggress ively
Ġcha otic
un ning
ĠP ed
ĠFA W
ĠA DP
int o
Ġhand ing
Ġst roke
ĠW AF
Ġk g
rol ls
Ġlat encies
Ġdro ve
ĠG ene
Ġpack ers
amp s
ĠM ari
iv est
f oot
B as
Ġe ast
ĠRe ve
Ġlif ted
urs or
k r
ĠPr int
ĠHen ry
i enced
ential ly
Ġdump ed
y an
ĠAr bit
ĠBot nets
S ite
ĠPer cept
Ġtor rent
Ġsubo ptimal
ĠFe b
ĠInter active
Ġoutperform ed
ĠFirewall s
ĠWHO IS
Ġun witting
ple teness
ark y
13 3
Ġ19 76
EC D
Ġfro zen
Ġen rolled
Ġcontract ual
s plit
ĠN vidia
op ilot
ĠAdministr ative
a uc
Ġc up
Ġther m
il on
ĠSte ven
Ġundef ended
r ality
ĠA NNs
ĠG O
Ġdefend ants
Ġrang ed
Ġge ared
Ġdomin ates
Ġinterchange ably
R OP
h idden
ĠObser v
ĠVehic les
ĠTik Tok
ĠDet ect
Ġsl ides
Ġprompt ing
Ġsacrific ing
ĠCont ents
D ist
u its
11 6
inter pret
Ġdisassemb led
Ġmultipl ications
Ġnot icing
Ã Ń
ĠB h
ĠSham ir
Ġscar ce
Ġfor tun
Ġw ing
Ġrecip e
Ġconstit uent
Ġsmoot hed
ĠInd ones
Ġpersu ade
ĠM EC
ĠN t
Ġreput able
L s
Ġd ance
ĠN AA
Ġcontact ing
ĠAri zona
Ġdump ing
Ġstr ide
Ġfif ty
N AT
23 6
r ang
Ġwar ns
ĠHistor ically
ĠS AS
ri ans
Ġcelebr ity
G iven
in ar
al king
Ġampl ifier
Ġwavelength s
Ġrail way
ĠT iger
ĠAle ks
c row
as er
ĠN ag
H L
ĠG ig
th ree
Ġpop ulate
ĠB an
Ġcred ited
ĠT ap
check ed
Ġwip ed
hatt an
Ġbr ackets
ĠOpen SSH
ĠP AR
ĠN ich
Ġdens ities
Ġ3 50
Ġapp ar
Ġsimpl ification
Ġseg mented
A ug
om orphism
Ġr ud
Ġaven ue
Ġmultip lying
i ac
m ates
Ġundec idable
bro ken
Ġbipart ite
Ġ19 78
US ER
on na
ĠSV G
Ġall ies
ib i
Ġtransaction al
ĠN u
Ġann oy
Ġm ilit
ĠS addle
ĠDe lete
Ġhistor ic
ĠR ick
ĠEnh anced
ĠZucker berg
ĠC z
art ext
ĠIP Sec
ĠSc oring
ĠMit nick
Ġdisag reement
Ġ2 24
vis ible
ĠAppro aches
Ġdiscrep ancies
ĠIslam ic
Ġh ammer
Ġmer it
Ġal ters
Ġpar sers
Ġref ining
Ġcircumvent ed
Ġchrom os
Ġb ath
ĠL ambda
CH Q
Ġse q
Ġind ispens
Ġinvest or
ĠSS D
2 20
or un
Ġcent res
Ġannot ate
ĠW asserstein
ĠD elivery
Ġx p
Ġrepet ition
ĠR OS
g un
Ġ Ã
Ġallow able
ĠCON CLUS
Ġtechn ician
Sh are
Ġcomprehens ively
es ome
CS FW
PC A
ĠPop ular
Ġhe lic
Ġtrunc ated
L ike
Theore m
By te
ĠInstall ing
Ġdisag ree
Ġme at
ĠY i
ĠAd vant
Ġcou p
o ving
a ug
f etch
Ġo der
Ġref lex
Ġbook mark
Ġeigen value
ĠL U
Ġche st
Ġdispl acement
] ;
ĠRece iver
Ġc argo
ĠD ere
OL O
pl er
ĠS pl
ĠJ ess
Ġweb mail
ĠG E
Ġrec omp
Ġtempt ing
Ġf ifteen
cr iminals
C W
ĠPack age
ĠCap abilities
ĠL iter
ĠCCP A
ĠM ath
ĠEnviron mental
ĠGuid ance
w hether
Ġdiscontinu ed
Ġd ans
and id
ĠO ak
Ġsubt ree
d ynamic
Ġden omin
Ġ13 1
ĠCamer on
ress es
ĠJ ersey
Ġimpl anted
ĠAss ets
ĠBi ometrics
Ġther most
Ġnegot iations
ĠO OD
ĠMag ic
Ġbomb ing
erg us
Ġcl ique
Ġdesign ate
Ġsuperior ity
Met hod
H P
me ga
ĠInt ers
ector al
Ġachieve ments
Ġg lean
ul as
def ender
Ġproceed ing
Ġc rook
ĠP ush
ins on
St ar
ĠPro Verif
ĠLuck ily
ĠR CE
Ġmanual s
Ġstre ets
P aper
Ġb att
Ġsur gery
trans parent
ba um
it te
Ġassoci ating
ĠCON F
Ġfr iction
Ġconnect or
ĠMont age
Ġtrans itive
sh ort
S K
Ġth ief
de ep
Ġhash tags
Ġnuts hell
ĠS ay
ĠR u
ĠF O
in ternal
ĠE uro
ĠOS s
m aps
Ġrein force
Ġgang s
in x
Ġla ugh
Ġmand ates
ĠRRE Q
H OST
K M
Ġpy ramid
ĠPent agon
ĠCI S
ĠR osen
g s
Ġn atively
Ġminim ally
12 2
Ġmarket ed
OC ESS
Ġsel dom
Ġremind ed
ors es
ĠExt ensive
Ġelev ate
Ġquarant ine
ĠD ick
Ġph re
Sc ope
ĠK on
ha ul
Ġcybercr imes
Ġexc ludes
Ġdeleg ates
ĠB DD
Ġunder pin
Ġlegitimate ly
ĠEngine ers
priv ilege
Def ense
Ġfound ing
Ġ] #
CE SS
l ier
Ġ15 00
ĠJ osh
Ġbind ings
ĠR iver
ress ing
Ġover run
P y
Ġmain frame
Ġsound ed
ĠM FA
Ġbro kers
ĠArab ic
h ang
ĠI MSI
H igh
Ġsimpl istic
R andom
u itive
import ant
ĠEx port
Ġanaly tically
ĠRec urrent
ĠPhys ics
200 2
ĠR NNs
Ġepid em
Ġcross ed
Ġsmooth ly
ĠFil tering
avi olet
Ġreplay ed
ĠVari able
ist ency
ric hed
requ ent
ĠOS es
link ed
ft p
Ġresp ected
Ġfr anch
Ġrebo ots
Ġper col
Ġemerg ent
Ġprototyp ing
ĠAc ross
i at
log s
Ġsub liminal
Ġunc ons
ĠStr ict
Ġms f
Ġre location
ust ain
op oly
ern ame
ĠLand scape
ra per
Ġindispens able
1 15
ĠMult ics
Ġtrick ing
ĠSant a
Ġt ended
Ġg ym
Ġam ple
Ġnon free
inst ead
Ġingred ients
S IM
Ġquant ized
ĠStat ement
ĠEnt ropy
ĠHow ard
Res p
Ã ³
Ġw i
Ġir r
ĠFI LE
ĠCo operative
Ġguard ed
Ġevic t
Ġpref etch
Ġworth y
ĠO SS
ĠFul ly
W IND
Ġsub mar
ph y
Ġrevis it
ĠD um
ĠEL F
f light
ĠIn formatics
ĠY andex
ef it
) =
ĠHum ans
Ġdismiss ed
Ġdeal er
ĠKur akin
ol n
ĠN y
Ġclo thing
ĠTH REAT
Ġencaps ulated
at tering
Ġto ll
Ġser v
ĠOver flow
ĠQual comm
ropol itan
ĠH ook
Ġdev iates
Ġforest s
Ġapp ending
Ġsk ipped
Ġabstr acts
ĠBank ing
st d
ould er
pe g
ĠEcl ipse
Ġo cean
Ġsystem ic
ĠUS ENIX
ĠBit coins
ĠF light
Ġag ing
ĠRog er
Ġk il
Ġste ep
ĠActive X
ĠHaw ks
h ire
ĠI l
Ġinter ventions
ĠOP ER
Ġun fore
Ġstr angers
Ġfraud s
ĠCyber S
Ġmicrow ave
ĠLever aging
V I
ĠR ain
Ġcooper ating
G U
S ync
ĠJ ordan
y k
Ġcare less
Ġcrypto jacking
Ġincre ments
Ġs ib
00 5
Ġacknowledg ement
Ġdes ires
ĠSP I
ĠAb adi
Ġfriends hip
Ġfrag ile
ĠS alt
ĠP ip
ĠSQL i
ĠMc K
Ġinsp ire
low er
perv a
ĠRed uction
x d
ult ural
Ġcomput able
Ġ< <
Ġ24 0
Ġincur ring
Ġstead ily
eth ical
ache lor
F N
M ay
Ġover see
Ġactiv ates
ĠG all
Ġcentr ally
Ġshr ink
Ġb a
200 1
effic iency
Ġstabil ize
Ġhel lo
Ġoscill ator
ĠE c
Ġrel atives
Ġins ign
ĠMo on
Ġw re
ĠD DR
ĠAn alog
ĠTor onto
Ġjudg ments
Ġmet ering
ĠX box
ĠCC TV
ĠThe ft
Ġde reference
conn ection
Ġhash tag
Ġfundament als
it em
log ue
ins ky
Ġhob by
Ġdest abil
Ġadj usts
in formed
ĠCy berspace
ĠDr ug
ĠO liver
ili ans
fort able
Ġjail breaking
Ġfat igue
P AD
Ġj Query
ĠCo ast
ĠShan ghai
ĠProp ag
ĠAn onym
Ġpar k
ĠSel ected
ĠEv il
ĠMit M
F ET
Ġpro ud
ĠI MA
ĠSt ake
rest rial
ĠPy Torch
ĠPercent age
âĢĻ )
Ġsucc inct
Ġhus band
ĠH orn
trans fer
organ ized
fund ed
ĠPurch ase
Ġcode base
AC C
ĠMan hattan
Ġchalleng er
struct ure
IC K
Ġho pping
an z
ĠCon struct
Ġdownload ers
Ġequival ently
conf idence
O ct
t ack
ĠW ave
Ġlif estyle
Ġadapt ability
approxim ation
ĠR TS
ĠBarb ara
ĠNiger ian
ĠEnterpr ises
ĠUt il
ĠA BC
ĠMess aging
Ġinher it
ĠAnalytic a
m art
Ġw iring
ĠAttack ing
ĠS FI
ess im
Ġde anonym
Ġphys ic
Ġamort ized
W R
Ġdemocr atic
v ik
ĠV a
13 2
Ġtouch screen
Gr aph
Ġgamb ling
un n
Ġcy cl
Ġcovert ly
ĠA wards
ĠO D
Ġb ent
Ġaffili ates
i y
RO UP
H unter
in ates
St rike
S yngress
inc ide
class ified
ĠMar ine
proper ty
ĠS SA
Ġcent uries
Ġfet ching
Ġd pkg
00 401
Ġtyp os
Ġresid ue
Ġts unami
Ġim mers
Ġdirect ing
ĠDec lar
f acts
az i
Ġn ose
ĠB und
Ġdiv isions
Ġcast ing
Ġc ater
Ġhere in
ĠCl am
ĠMe g
ĠS TS
Ġparad ox
Int el
ĠW a
Ġconcrete ly
M ix
ĠH il
Ġemb od
Ġi Pod
ĠC oding
Ġmore over
Ġj ack
Ġdecl aring
ĠMAS INT
ĠâĪ Ī
Ġextraord inary
um ble
10 8
ĠC AR
Ġsign alling
t iff
st rom
neg ligible
ant h
Ġtouch ing
Ġvet ting
F R
R ad
ĠN oS
Ġdefin itive
23 9
ĠEx erc
ĠIs olation
re tt
Ġmathe matic
Ġreferen cing
Ġunlaw ful
Ġ19 73
requ est
Ġregistr ations
ab ases
Ġpart nered
ĠK Q
Ġsuccess es
Ġcircum vention
hard ware
Ġtrend ing
Ġpreced ed
ĠDrop out
/ (
ĠT aint
ĠEffect iveness
fil tering
ON G
ĠGe o
Ġabund ant
Ġst one
Ġs en
ĠC SO
Ġcontam ination
ĠR ET
Ġinj uries
ĠEmerg ing
j son
it iveness
Ġver bal
Ġsequ el
control l
Image Net
Ġmult if
2 64
Ġadvis or
ĠMAC s
Ġl inux
aw s
Ġfile less
bal ancing
ound ed
Ġafter math
Ġintern als
Ġemerg es
prem ise
se ver
perturb ed
Ġinv itation
ĠC ould
edu ce
rop ic
ĠU IC
App lication
ĠUnder stand
ĠInf rastructures
Ġtrampol ine
ĠMob ility
ass embly
Ġrec alc
ĠEF S
Ġburst s
ed ed
Ġab usive
Ġ19 72
Ġinformation al
Ġm ails
ĠK ent
Ġali ases
Ġasser ted
âĢ ³
ĠR G
Ġlinear ity
O UT
ag h
Ġ1 70
ĠDe ath
Ġbi ke
ask a
pre fix
Ġdiv ul
Ġres idence
ĠN TLM
it ement
ĠB ypass
Ġ19 75
ĠSp ark
R uss
mon itored
Ġbacter ia
ĠW ould
Add itionally
Ġprote ins
Ġqu art
Ġhum idity
Ġb ump
ĠA OL
ĠS andbox
Ġst ance
ĠE DM
Ġsold iers
cl uster
ex it
ĠJ in
enc l
Ġtool kits
Ġn od
F B
ĠS ender
Ġdifferent iating
Ġcontrad ict
Ġs led
acre z
re lease
ĠPer form
ĠNT FS
Ġ10 8
Ġsafeguard ing
if est
Ġeduc ating
Ġtr unk
ĠE K
Ġref in
Ġ100 00
Ġco incide
ob s
Ġpeculi ar
M IN
ĠI vy
ĠE AD
Ġtechn icians
echan ical
Ġinfiltr ated
tra ffic
[ âĢĺ
Ġsw apped
ĠLo op
Ġworry ing
F M
es ian
ĠDo pp
ins pired
Ġse aled
AV A
ari os
Ġpath ways
ĠPr ice
Ġsacrific e
int osh
ĠDen mark
R ay
Ġmod ality
ĠLa unch
ĠIns ight
Ġdepict ing
Ġc i
Ġdoub ling
N OW
Ġc t
ĠP G
Ġunav oid
Ġvari ational
Ġstick y
Ġconce aled
Ġâ ģ
Ġaband on
Ġt apping
23 7
Ġcalib rated
ĠCom ment
ĠAcc red
ĠTrans lation
ĠExt reme
usp icious
ĠJust in
ĠC ut
Ġres ets
Ġbur ning
umb led
Ġindict ment
ĠO mn
ĠFl ag
Ġdiscour age
oub ted
ĠJ ha
Ġn g
ĠS hen
St ore
Ġda unting
ĠTelec om
V is
Ġmin ister
ĠIr ish
dfund ing
ĠD ictionary
Ġcomplic ations
ow ski
Re lease
dis closed
weight ed
ĠCounter measures
ab e
sp aces
ĠEnumer ation
ĠR ADIUS
ĠC um
Ġmiss iles
Ġess ay
ĠAg ile
Ġfree ze
ĠSat ur
Ġto gg
ĠAb use
P ost
y en
ial s
Ġcle ans
def ine
ĠLoad Library
ĠH unt
ĠIm perva
ĠEnt ity
Ġreject s
Y PE
Ġdesc end
ĠEv asion
\ \
violent acrez
ly n
ĠF ergus
ĠP ages
we ak
ĠCD s
ĠOh io
ĠDisc rete
el p
ath on
Ġ] ,
t rip
Ġc ite
al igned
ĠS TI
ĠC ES
TS C
Ġimmin ent
Ġlast ed
Ġhar sh
ĠDocu ments
Ġpractition er
ĠR aw
ous es
ĠApp arently
ĠWork s
determ ined
m and
n ist
ĠPa ros
Ġeavesdro ppers
## ##
Ġchemical s
W ord
Ġtr ails
ĠH it
Ġsnoop ing
Ġsp ur
ĠVisual ization
Ġreluct ant
ĠS DP
Ġnumb ered
p f
Ġt aste
in ers
ĠW LAN
Ġque uing
it r
Ġcirc ulation
ĠExpl an
ĠSur face
ĠScient ist
Q R
ĠMOD EL
Ġre habilitation
ĠCube S
Ġv table
Ġreproduc ible
ut ch
c les
Un der
A c
Ġdiscover ies
rel ations
vol ume
ĠCho ose
i ator
l ings
s ocket
v s
Ġem ulating
Ġcommit tees
set up
Ġreflect ive
ac em
sc ience
ĠM BA
ĠPh antom
path s
ĠLog s
g lobal
Ġint imate
Ġsitu ated
ver ified
Ġg host
ĠS r
ĠDes cript
V R
Ġhyper plane
14 3
Ġsandbox es
Ġdistill ed
ut ral
ĠI aaS
ke ver
Ġun constrained
ĠCR R
Ġw izard
Ġdifferent iation
Ġspecial ization
Ġfar ms
uts kever
Inst ead
ear s
use um
Ġadvertis er
Ġoverwhel m
ĠR X
ĠG ard
ĠW MI
R ET
Ġsurround ings
Ġwonder ful
Ġin verted
ĠO M
Ġcle artext
Ġharvest ed
Ġ) :
ĠRober ts
ĠANS I
oubted ly
ĠSP AM
ĠN ight
Ġcorrect ing
ĠTEE s
uct ural
Ġdon ations
at ial
ĠL inks
Ġlib c
Ġpedest rians
Ġamate ur
Ġhot spot
angu ages
Ġreject ing
ĠD HT
Ġsell s
id ability
Ġbe ars
Ġflo oded
Ġdat acent
Ġwave let
Ġmultip ath
ĠN R
12 4
/ ).
am al
Ġmal loc
n m
ffic iency
Ġcraw led
ĠS TP
ĠN ames
ĠP od
ĠH C
Ġport ed
Ġsym met
Ġconf inement
ĠAff ected
n one
ĠOS N
potential ly
ic ter
Ġsurround ed
Ġl un
Ġincre mented
Ġprohib its
Ġunders core
Ġso il
G e
Ġs word
is dom
ĠB ry
ĠCli ents
id al
th ur
ĠAust ria
comput ing
ot echn
ĠA IS
ĠC ub
ĠG reedy
Ġdorm ant
ĠUn c
Ġris es
Ġcard holder
ĠShut tle
Ġatt en
Ġnow here
Ġtele phony
ĠDi agram
Ġpublic ity
ĠExecut able
Ġequ ip
ĠTool kit
ĠPRE PRINT
Ġs s
Ġw ings
ĠS utskever
ĠB ND
Ġkin etic
Ġinit iation
Ġt ent
ĠE ug
ĠRecommend ation
ĠCC A
Ġprofit ability
Ġf ur
ĠEm pire
Ġsuit ability
Ġex empt
Ġdef ens
arch ing
Ġrevers ing
ĠAtt empt
Ġscrut in
Ġcan cell
Ġcrypt analyst
im ore
am ond
Ġtax onomies
ĠMan aged
ĠDeterm ine
M AN
b c
Ġsw ipe
Ġde obfusc
Ġout right
Ġj argon
ĠPubl ished
Ġs yst
av it
Ġdrast ic
Ġinst inct
10 6
Ġshare holders
Ġnavig ating
ĠRy uk
ĠBet a
Ġprocure ment
R ob
S upp
av is
ĠReg ion
R et
Ġso vere
Ġreal izable
inf ection
ĠRemed iation
Ġt ons
Ġke en
Ġpropos itional
ĠRepresent ation
FORM ATION
Ġt ort
ĠW as
Ġapplic ant
ĠPer fect
Ġbullet ins
ĠW ard
ĠL FW
Ġcol lude
ĠCol umn
Ġâģ ¡
ĠD ump
ĠCall er
Ġdisassemb ler
former ly
spy ware
Ġcl ips
IT T
pool ing
U ND
Ġmim ics
h or
ĠV PS
Ġph antom
Ġcongest ed
ir med
Ġver ifiability
Ġbon us
Ġagricult ure
ill ation
Ġren aming
ĠWar ning
Ġaccum ulation
Paper not
ĠH I
ug es
t itle
Ġactiv ating
duc er
Ġdedu ced
Ġeng agements
Ġhuman ity
Ġn omin
Ġtelesc ope
Ġcor robor
ib li
Ġ) -
Ġmass ively
R el
ĠProced ures
n eed
our c
ne ath
Ġa uf
ĠPort able
Ġpresum ed
F ore
Ġfact oring
EE R
ĠWeb sites
Ġm es
Ġam enable
ifi ably
ĠAf ghan
Ġreser ves
j ava
ĠSil k
Ġrobust ly
Ġnegot iated
com mercial
ĠOlymp ic
Ġ2 32
Ġu i
P etya
C an
Ġdr ink
Ġmaxim ized
Ġunav ailability
Ġremember ing
ĠDeterm ining
Ġthe or
ĠTer ry
Ġn oun
o a
Ġc c
ĠB attle
Ġprep ares
ĠTrust O
ĠSA ML
pro ject
amp ed
Face book
S core
ĠMechan ism
ĠFront ier
Ġappar atus
v oting
he res
Ġf ancy
ĠF aster
ĠW ars
ĠHPC s
Ġap olog
ĠOpp ortun
Ġsk et
vulner ability
Ġuncom fortable
ĠEternal Blue
Ġf ost
Ġcr ystal
Ġ19 77
Ġunre asonable
Ġinter d
ĠJ ail
Ġbul lying
Ġcallback s
Ġdipl om
ĠP OMDP
int ro
ĠCho osing
â Ī
and em
Ġmet ro
Ġdec or
ĠI SC
ĠWeak ness
Ġc itation
Ġst ro
t p
ĠSc ale
ĠSome one
mean ing
lat ency
k m
BI OS
GP P
sel ect
Ġcont ag
ame le
resp ionage
Ġampl ify
dat abase
v m
ĠL yn
Ġp H
ak u
tern oon
ow s
Er ror
Ġch ats
Ġadapt s
ynchron ization
ĠL G
Ġsc rew
ĠPol ish
ĠDel phi
Ġm erc
ĠP lot
ĠTo o
Ġarrest s
ĠInvestig ations
ĠInform ally
C op
ĠR ails
Ġdef amation
Ġmicro grids
Ġspat ially
Ġtr acerout
and ra
ĠG ulf
Ġprohib itive
c uss
d l
ĠPh oto
yth m
Rem ote
Ġrom antic
th reshold
Ġem oji
Ġabsor bed
Ġpast ed
Ġdirect s
Ġcircumst ance
ers en
sp ots
ĠT ony
Ġmem br
Ġexhib iting
W ell
Ġacknowled ges
AN A
Ġdeclar ative
Ġdiscret ization
V ault
loc ations
ĠR TL
20 5
Ġentang led
ad itional
ag ic
ĠAr ray
Ġ12 3
ĠPl ant
ĠSum mer
Ġdisc ounts
Ġform ulations
greg ate
amper ing
Ġmob il
ĠHosp ital
Ġass emble
Ġspam mer
g io
ĠInspect or
oper ator
Ġannoun cing
Ġmar riage
ag a
Ġalph anumeric
Ġde re
alt imore
h is
Ġreconstruct ing
ĠMex ican
st an
Ġplain tiff
Ġrelay ed
s ector
h ill
Ġvi ability
Ch at
Ġtri ples
ivers al
Ġgrad es
imp act
l ake
ess ment
Ġdes per
Ġdecl ares
h ind
ĠT ag
p he
ĠC ash
x ide
Ġf oo
ut ils
ĠAssoci ate
r ights
Ġdiv is
Ġperson as
" >
he nce
Ġtyp ec
Ġ0 2
Ġlat itude
Ġtransform ers
Ġres ign
ĠK umar
Ġ0 3
ĠPRI SM
Ġdeput y
over l
ĠSim pl
Ġtri angle
ĠUt ility
and estine
Ġtime outs
ĠV iden
O ffic
Spec ifically
ĠIMD B
Ġsu ck
Ġun icast
to o
ĠRes olution
E very
Ġbul b
Ġprosecut ors
Ġum brella
Ġz k
Ġterr itories
y u
IZ ATION
ĠB TB
Ġstr icter
ĠFel icity
os ition
Ġ19 74
ĠReg istration
Ġunfore seen
K T
Ġmultis et
t te
ĠA MP
Ġhead line
port ed
OW ER
ow ed
Ġdiagn ostics
Ġrestart ed
Ġshed ding
ĠOS INT
Ġkill s
! !
am an
Ġinter play
Ġpop s
---------------- ----------------
d estination
s ix
Ġm d
Ġben e
we g
supp orted
G ate
N ational
ic ators
Ġstamp s
ĠEqu ations
ĠTim er
ĠB ah
ĠH ess
ĠA TP
ĠZ w
Ġd od
ĠK ir
22 2
ess ed
Ġsc are
Ġorgan ised
Ġver ifiers
Ġ: :
Ġappoint ment
Ġz ombies
AR P
ĠXOR ed
crib e
ET E
Ġstick er
Ġfulfill ing
D ER
Ġrec reate
Ġvirt ue
ĠPrim ary
ener gy
Ġelect rons
Ġembed s
Ġ* *
Ġen act
Ġexp ires
Ġshort cuts
Ġreput ational
Ġalb um
Ġb ags
str a
ned y
L ast
em ons
so f
ĠId P
ĠGold en
Ġbit wise
it ization
om ining
Ġform ulating
Ġacadem ics
ĠPerturb ation
Ġag ed
ex pl
De bug
Ġdistr ust
ĠWil low
S ocket
Ġ ^
ou pled
Ġpre fers
Ġsyn onym
ĠM CB
Ġsequ encing
Ġlock down
ĠOut side
comput ation
N AL
W I
Ġdegrad ing
P res
ĠP Q
Ġoff ender
Ġur ged
ĠDen nis
im pl
ian ts
Ġm el
ĠF all
ĠL an
paramet ric
n ik
ĠRet ail
Ġtravers ed
P rop
ĠSu pervisory
inf rastructure
g age
J une
S n
ĠPack ets
Ġspokes man
R en
is ite
Ġdiver t
h aus
host ing
Ġreven ge
cre ated
m aker
Ġcow ork
Ġconce ived
report ed
plo ad
Ġam ended
Ġse iz
x ing
ĠAct ions
Ġelic it
EC H
Ġimper f
ĠConc rete
m asters
is en
Ġimag ination
, (
ĠSVM s
ĠNeed ham
at ization
d on
r b
un ique
Ġwear ables
ĠE PC
ĠLa un
ĠShort ly
Ġfor t
Ġaugment ing
ĠContr ary
Ġblack out
Ġout we
back ed
ĠT N
ĠMarc us
D on
Ġspec ulated
Ġcompl ained
ĠR AND
Ġhand written
S ys
AN s
p edia
Ġdesc ending
Ġ19 69
Ġauthor isation
Ġselect ions
Ġep ist
ĠH s
Ġsan ity
Priv acy
gre SQL
D ay
S i
Ġas cent
Ġex agger
ĠCI SSP
ĠSte vens
Ġen riched
ĠB TC
Ġx k
att ended
ĠLog ical
Ġenumer ated
Ġadvoc ated
ĠAdv ance
e very
Ġr s
ĠH IDS
ĠFab ric
ĠA ML
14 5
ĠAR C
ĠEvalu ating
Ġmod ulated
cid ents
ĠPro blems
ĠNe umann
Ġpermiss ive
ĠD iversity
ĠU AC
Ġfore most
Ġflat ten
Ġcod ec
ĠR aj
Ġfac ets
Ġp df
Ġr ape
Ġsc atter
ast ed
Ġmother board
Ġtow ers
ĠD U
ĠB os
ĠL CD
Ġglit ch
ro v
Ġrefr iger
W indow
word press
Ġab lation
ĠNot ation
in arily
Ġbelong ed
Ġevid enced
E v
L T
M F
ĠCh amp
iche ver
ad riven
ĠG CHQ
Ġmalicious ness
EE P
ĠMult ip
us ername
Ġprop ortions
Ġread iness
Ġgyro scope
Ġconver ged
ĠMac intosh
Ġremark ably
ĠCertific ates
ĠC onduct
Ġram ifications
ĠFinn ish
Ġ iv
ĠAn arky
ĠAdministr ators
Ġd up
comput ers
Ġfrustr ating
Ġuncons cious
os ity
ĠCh ip
ĠCharacter istics
Ġreproduc ibility
il iation
ĠBeng io
ut ter
Ġmiss p
ĠFDI A
engine ered
Ġmil k
Ġconfron ted
Ġw isdom
val ds
ĠDet ector
Ġbut ter
ĠAuthent icator
Ġonboard ing
Ġp cap
ĠSS O
Ġenj oys
ĠBern stein
Ġentang lement
Ġplay ground
Ġpermission ed
ĠCha os
ĠPAN OP
m icro
p arency
ĠCon stant
Ġneg ation
ĠBud get
ing er
ĠThe r
ĠPi lot
Or ig
Ġfun c
Ġbr ill
Ġten ant
attack ed
Ġregistr ant
m ix
our se
Ġtrad es
Ġland marks
ĠTibet an
Ġ19 68
ĠRRE P
ĠR d
ĠF Y
part ic
ĠTechn ique
CAP TC
3 84
Ġscr ub
ĠVis it
lo itte
Ġcheck point
control lers
Ġprerequis ites
Ġapproxim ates
Ġemerg encies
Ġspr int
ĠEug ene
g z
ĠT u
ĠIC LR
Ġprogress es
ĠConstr aint
Ġanim ated
Ġpermit ting
Ġd b
Ġad b
Ġloop holes
Ġunamb iguous
Ġun recogn
Ġdefend ant
havi our
Ġpad s
ĠEx ec
ĠB altimore
Ġha voc
ĠO VER
Ġfol d
ĠAir port
M in
Ġstat s
Ġste er
Ġteen agers
ser vers
Ġsupp le
Ġiter ates
mat rix
pre cision
ĠDiscuss ion
ĠH ypot
Ġhad n
Ġmer its
ĠN AND
ĠL IN
ĠMod ified
ĠREL ATED
o is
im g
ĠPe ace
Ġcon e
o DB
s ale
ĠR oth
ĠE EG
ĠN UM
Ġgun s
ĠO U
ĠL am
ĠMe eting
FF ER
Ġcomplic ate
ĠGraph ics
G O
Ġb arc
Ġ1 17
r w
ĠLog ging
ĠT weet
Ġexam iner
Ġheart beat
ĠAppro x
W inds
ar ray
ĠI Q
ĠL DA
Ġhard est
Ġbo ots
Ġcustom izable
Ġb ull
un less
ĠBar r
ĠEmploy ee
Ġcolle ges
Ġunnecess arily
24 4
ĠPH I
ber ger
ĠIn structions
Ġdict ate
Ġtestim ony
Ġunknow ingly
Ġarchitect s
Ġele ven
Ġev asive
20 9
ĠBo eing
ann y
Ġan gry
Ġr ally
Ġsc ary
Ġhy pervisors
process ed
ne arest
ĠChe mical
iment ary
ga pped
at ers
ĠDat alog
P art
u ce
Ġaff irm
H at
en ium
ĠClass ic
Ġquestion ing
Ġdispers ion
Ġretrans mission
Pro v
Ġnation wide
P GP
Q KD
anc ers
isc al
auc r
r anging
Ġeng ages
Ġimm igration
unct ive
ĠCarb on
Ġsurviv ability
ĠLar ry
ĠGN SS
Ġmyst er
Ġ2 30
W ire
p al
ĠC AM
ĠZ hao
A ud
k et
Ġ( <
Ġbeh aving
ĠFore shadow
Ġmar ried
Ġconvey ed
D ue
Ġt akedown
ĠRequ ests
an h
ĠRelations hip
ou ched
ĠH ug
ĠL DP
Ġblack hole
Ġillum ination
ĠM EP
Ġsl ack
ĠCC I
ĠFeder ation
ĠDomain s
w ick
Ġdis charge
ĠVari ables
ĠLFS R
h it
Ġd s
ĠD ream
Ġciv ilians
Ġif rames
Ġfraction al
ĠEffect s
ĠMQ TT
ĠA aron
ĠP eng
Ġdecomp ose
Ġstuff ing
ĠPent ium
B oth
k ov
Ġactiv ist
Ġfl ushing
Ġpseud ocode
Ġdiscour se
Ġbe ams
Ġunder neath
ĠEstabl ish
Ġwat ches
F alse
p air
Ġwin ners
Wh y
ĠActiv ation
ĠIOC s
Ġnick name
ĠR ough
ĠW omen
ar row
Ġn eck
Ġsp un
ĠG auss
Ġinterpret able
ĠClar ke
Ġban ning
work ing
Ġ12 34
Out put
ab ler
Ġim itate
Ġoff loading
li pping
ĠRestr icted
as ury
all as
Ġmetaph or
Ġdispers ed
pt ical
Ġab orts
ĠSc ope
emb ling
Ġeconom ical
Ġmisclass ifications
ĠAD S
Ġhydro gen
st o
Ġbre eding
Ġpay out
13 4
Ġc f
Ġthr ust
Ġpath way
ĠBe EF
ĠVirtual ization
Ġe ine
Ġpossess ing
Ġinspect ions
Ġman g
ĠF lood
ĠP air
ge x
Ġmult ist
Ġbind s
ĠPlan et
Ġden ies
leg al
Ġapproxim ating
ĠH art
Ġdial ing
ĠAUT H
ast ing
ĠSS ID
ab a
EC C
Ġdedu plication
ĠMaterial s
Ġ3 000
ĠZ im
upy ter
Ġsp awn
Ġret ros
ĠSte alth
Ġw get
Ġcons oles
ĠOS X
ĠInstall ation
Ġfor ging
Ġcommon place
Ġpain ting
ĠAppro ved
ĠBe acon
rehen sive
Ġsucceed ing
Ġo k
ĠR ose
Ġconstrain ing
Ġreward ed
C hen
en v
oth y
oth am
direct ed
ens ys
az ines
Ġtax i
Ġparent al
Ġd as
ĠE lement
ĠL ud
Ġdef raud
Ġin k
Ġconstit u
tu ple
N P
bit ious
Ġouts iders
ic iary
ĠF ID
Ġsh irt
erm ann
b order
Ġobsc urity
2 16
Ġ ug
an im
Ġpay offs
Ġn esting
ĠSam ples
ĠDirector ate
Ġhypothes ized
ĠOrig in
ab etic
9 11
w ig
Ġrecogn ised
stat us
f its
Ġof t
ĠUn limited
Ġexc use
ĠRequire ment
AP P
ĠConf idence
ĠCr ash
Ġcan ce
Ġblur ring
Ġpra ised
Ġw ors
Ġdefend s
PC I
Ġche ss
Ġdev ising
ev olution
Ġware house
ĠNe v
Ġcond em
Ġt ions
19 90
acc ount
in os
str ings
OP E
ĠDre bin
Ġsynthes izing
ĠSchne ider
ĠMin imum
ĠO CR
Ġattach ing
ĠVLAN s
ĠD IM
Ġrac ial
L M
av oid
M UD
Ġoverwhel med
Ġsl ang
stud ied
Ġsv chost
M a
cent ered
MA X
ĠS onic
ĠL ord
Ġpersonal ization
ĠStructure d
gener al
Ġprovision ed
Ġprinci pled
ĠTrue Crypt
Ġaccus ations
Ġshadow s
f amily
Ġprol ific
Ġdissem inated
ĠBullet in
ĠP asc
ss l
ĠSupp lement
Ġintellig ently
m is
ĠM RI
ĠPh orm
ĠTor valds
ĠIntr uder
s ight
Ġco ach
Ġslow ed
ĠBehavior al
ĠNeighb or
ĠB order
ĠPC R
ĠSP E
ad apt
Ġreli ant
ĠFal con
G I
le ak
ant i
ĠJ T
ĠA chie
Ġportray ed
Ġf aked
Ġun sure
ene z
ĠUN C
Ġclip board
ĠP EP
ill ary
ĠPut in
ĠK ee
Ġven ues
P at
Ġx en
le tes
am ai
vol atile
Ġinstruct s
R educe
Ġpre gn
Ġno vice
Ġinstit ute
B Y
Ġc ure
Ġun il
2 15
ĠP att
erm arks
Ġcentral ised
Ġsav vy
======== ========
work ers
Ġneighb ours
ĠHand ling
ĠSepar ation
ĠWOR K
Ġlux ury
ĠD ynamics
Ġmult it
Ġill ness
Ġadvis ories
ĠHaw th
ov ich
Ġmot if
Ġtack led
Ġentreprene ur
ocu mented
ĠSym metric
Ġbund les
Ġoscill ators
Ġpercol ation
R o
ĠT umb
Ġ0 8
Ġfound ers
pic uous
Ġp unch
load s
Ġmimic ry
ĠFeed back
Ġvess el
be respionage
ĠGre ece
ĠSn ake
REF REF
Ġpreced ence
24 6
0000 00
ĠNak amoto
Ġdata frame
Ġcas ino
C ase
ĠH KEY
Ġprom isc
In put
ĠDef ining
Ġaw k
ĠN an
ĠNet filter
ĠFlip It
controll able
N AME
autom ated
oid s
ĠCr iminals
ĠExp ected
ĠSymbol ic
Ġb ay
ĠS AR
Ġhistogram s
ĠPut ting
Ġthick ness
C ent
Ġinterp ol
Ġw ishing
ĠPro jected
Ġ19 67
Ġple aded
Ġsh ots
Ġill usion
AB S
ĠBal dr
com b
Ġgoshaw ks
ĠSynt ax
ĠS ources
Ġfr amed
Ġkeylog ging
ĠL es
Ġprogram mes
ĠVari ant
ĠFeder ated
M AS
n p
C aps
w indows
Ġpract iced
Ġbene ath
o lo
p am
am y
ĠR on
Ġquarant ined
40 4
Ġsubstit uted
CAPTC HA
it iously
Ġauth ored
ĠMad ison
Ġthrow s
) #
Ġp m
ĠCollabor ative
Ġa ka
Ġun do
Ġpat ience
RE G
ĠSub sc
ĠCrypto Wall
d ney
ĠT ro
ĠH end
ĠA X
T ree
Ġunn amed
road cast
Ġb ounce
ud ent
ĠY OLO
ag en
Ġrandom izing
Ġpercept ron
ĠMathe matics
s omething
ĠCh ase
Ġformal isms
, %
ĠW he
Ġse ats
Ġsens es
hand ler
Dec ember
ĠAcad emic
Ġdur ations
M ode
N ER
ĠH az
ĠEx ception
ĠLe ast
Ġt ally
Ġpost ings
p se
ivers ary
ĠD ub
PS K
Ġu pp
Ġcul min
c ards
ĠP orts
Ġrepeat able
en na
Ġpr uned
Ġ19 71
10 9
ĠRandom ized
ul sion
Ġpres cript
Ġcur ated
Ġsubstit utions
ĠD ICE
ĠG PT
Ġcomputer ized
Ġrecogn ise
Ġrev isions
ĠCo operation
ĠMI L
Ġb s
w as
Ġj ew
Tr ace
Mod ule
Ġchar ity
So ft
Ġe ars
Ġdemonstr ations
Ġmetam odel
Ġsubstr ate
: "
ĠLim itations
r aph
th us
Ġlisten ers
Ġfreed oms
N on
per haps
Ġam end
Ġpun ched
Ġcyberwar fare
Ġ13 5
ĠAccess ibility
ĠBegin ning
ul er
Ġextr apol
Ġrefin ements
Ġrules et
ĠGovern ments
lay ered
Ġinterle aving
Ġatt ending
ser tion
dro pping
Ġca ption
ĠAltern ative
pt a
ĠN DE
ĠSolar Winds
id ency
Ġvari eties
ĠPrim itive
Ġover fit
Ġsepar able
Ġve get
ĠHill ary
G As
Ġacceler ating
ĠEconom ics
r aries
Ġcollect ors
if ar
Ġair space
R G
Ġp ockets
ah l
ĠSil houette
Ġas pir
Ġwho ever
ĠPro duction
Ġsubstit uting
s ch
enc ers
equ ivalent
supp ort
m icrosoft
ail and
ĠRe play
ĠCover t
ĠO il
Ġprob ed
Ġdivers ified
Ġborrow ed
ĠDebug ger
c ross
Ġpossess ed
Ġshort hand
ĠObser vation
plan es
Ġrud imentary
ĠPANOP LY
ur g
dist ributed
NOW LED
end o
Ġcost ing
ĠEr rors
ĠHV AC
Ġb icy
ac ion
et ter
Ġpenet rator
Ġshuff led
ipt ic
plo re
UD A
inte ger
B ED
ud a
ĠZ ope
Ġfore casts
f an
ĠG athering
Ġrepl acements
Ġapplic ants
Ġrect angle
agg le
Ġ( ),
Ġdel icate
ĠTensor flow
Ġworkaround s
Ġvess els
ĠCrowd Strike
amele on
Ġt andem
od o
Ġqual itatively
h om
Ġwar rants
Ġlas ers
ot er
af ts
AD S
Ġdog s
ĠM IN
B ig
ĠG DB
man aged
n en
Ġlif ting
ĠGro ver
ell ers
Ġdec k
Ġreview er
Ġinj ured
Ġhazard ous
ĠW y
oper ated
u S
Ġp essim
Ġunc heck
Ġaf ternoon
Ġfasc inating
ĠN in
ĠO WL
Ġfin ishing
ĠNet Flow
Ġsandbox ed
s ourced
t emp
ĠH ang
Ġstate of
sh aped
Ġvo ic
Ġissu ance
Ġmix es
ĠIS IS
ĠSpe ech
ur t
ĠF lick
ĠScript ing
ĠB ast
ĠL C
Ġfound ry
Ġwat ermarks
M IME
ĠL ect
Ġinsign ificant
lic ensed
Ġimag ined
ĠQu eries
sel ected
Ġlaw ful
ĠMet erpreter
bre aks
H u
g one
Ġsp acing
ons eca
Ġreal izations
iss a
Ġdissem inate
Ġretal iation
ĠBOP C
Ġres umed
ĠMove ment
Ġlow ered
astro us
bo se
EO L
Ġaw esome
Ġ" -
cr ack
Y C
ent e
ĠMain tenance
ĠAN AL
l ive
Ġto ile
ide al
Ġdown ward
Ġmyst ery
Ġh over
ĠVirtual Box
ĠSoci eties
ĠVend ors
Ġbreat hing
Ġtheir s
ĠEX PER
om i
ĠS in
ĠAV G
Ġconform ing
Y Y
Ġschedul ability
ĠWH ERE
Ġthrott ling
' d
c ams
w ired
Ġcrypt omining
ope fully
ĠBig gio
S ym
W M
l ens
ĠS lo
A nt
Ġkey chain
Ġutil ised
ĠCook ie
Ġleg end
Ġreper cuss
Ġs ourced
ec oin
our g
ĠEx traction
R ES
ut z
ĠW allet
ĠJohn ny
ĠCz ech
I AL
h acker
Ġrec yc
Ġjo ke
squ ared
Ġalleg ation
w iki
ur sive
Ġunit ary
ĠLa ure
ĠMotor ola
L ength
d h
um ptions
ĠL inc
in v
Ġfrustr ated
ĠDere k
Ġc ensored
Ġrec omput
Ġmerg er
aff e
Ġcru ise
ĠP ast
Ġabbrev iations
qu ot
Ġun attended
Ġhone ynet
Ġf ined
ĠW iley
Ġsub version
ĠCh i
Ġbo oth
ĠTechn ically
b t
n l
Ġ19 40
17 3
ad ers
SN s
Ġtro ops
Ġdenomin ator
= (
Ġover he
ĠCo q
ĠProb abilistic
Ġpay roll
Ġturb ine
ĠB IND
thread ing
ĠLess on
Ġstr cpy
Ġoff enders
ĠJack son
Ġmultil ayer
Ġbure aucr
' ).
d ns
Ġdat at
L F
ĠL ower
NS W
Autom aton
Ġper missible
Ġimm ig
f ledged
ĠR ab
Ġund ocumented
ev olent
Ġorganis ms
ĠImpro ved
spe aking
Ġcrow dfunding
Pass word
otyp es
k h
ĠB ots
ĠU F
Ġsn akes
n ear
iss ued
ĠSp ider
ĠS av
ĠL ore
Ġte aches
c ached
ĠS UR
ĠP arent
ner g
Ġcommand er
[...]
